-- Copyright (C) 2020  Intel Corporation. All rights reserved.
-- Your use of Intel Corporation's design tools, logic functions 
-- and other software and tools, and any partner logic 
-- functions, and any output files from any of the foregoing 
-- (including device programming or simulation files), and any 
-- associated documentation or information are expressly subject 
-- to the terms and conditions of the Intel Program License 
-- Subscription Agreement, the Intel Quartus Prime License Agreement,
-- the Intel FPGA IP License Agreement, or other applicable license
-- agreement, including, without limitation, that your use is for
-- the sole purpose of programming logic devices manufactured by
-- Intel and sold by Intel or its authorized distributors.  Please
-- refer to the applicable agreement for further details, at
-- https://fpgasoftware.intel.com/eula.

-- Quartus Prime generated Memory Initialization File (.mif)

WIDTH=32;
DEPTH=784;

ADDRESS_RADIX=UNS;
DATA_RADIX=BIN;

CONTENT BEGIN

0	:	11111111110111110011101101100101	;
1	:	00000000001101000011100101011000	;
2	:	11111111110010111110000011011111	;
3	:	00000000010101010100110010011000	;
4	:	11111111110010101101101010111010	;
5	:	00000000000111110110111111010010	;
6	:	11111111101100100111101110110011	;
7	:	11111111110001000110011100111001	;
8	:	00000000001010001101101110001011	;
9	:	00000000000011000110001111110001	;
10	:	00000000001111101001000011111111	;
11	:	11111111110111100011010101000000	;
12	:	00000000001000000111010111110110	;
13	:	00000000001101110110010111111101	;
14	:	00000000000111111101100010101101	;
15	:	00000000000011000110001111110001	;
16	:	00000000000010100101011110100111	;
17	:	11111111110100110000101111100001	;
18	:	11111111101101110011000110010000	;
19	:	00000000010001100011111100010100	;
20	:	11111111110110100001110010101101	;
21	:	11111111111110001100011111100011	;
22	:	00000000010011011110110100101000	;
23	:	11111111110110110010001011010001	;
24	:	11111111110000100111010100100110	;
25	:	11111111110000111111111001011101	;
26	:	00000000001111000101000001001000	;
27	:	11111111111111110011001101000100	;
28	:	11111111110110101011100111110110	;
29	:	11111111110000101000111101011101	;
30	:	00000000000011011101001011110001	;
31	:	00000000000000111100110010001101	;
32	:	11111111101011011110000000001110	;
33	:	00000000000000010010001011111010	;
34	:	00000000010010110000111100100111	;
35	:	00000000001101100010101101101010	;
36	:	00000000000010101010011001001100	;
37	:	00000000010100100101010001100000	;
38	:	00000000000110011110100000111110	;
39	:	11111111111111111110110011101011	;
40	:	11111111101100000110111101101010	;
41	:	00000000001111001101001101011010	;
42	:	00000000010000001000001100010010	;
43	:	00000000001001011111110110001010	;
44	:	00000000001110010011110111011001	;
45	:	00000000001001100100110000101111	;
46	:	11111111110000000110100011011100	;
47	:	00000000001001101000000010011101	;
48	:	00000000001001110101001001010100	;
49	:	00000000001010100100101010001100	;
50	:	00000000001101110011000110001111	;
51	:	00000000000111100000000011010001	;
52	:	00000000010011001001100001011111	;
53	:	00000000001000110011100111000000	;
54	:	00000000000111110110111111010010	;
55	:	00000000001100001000100110100000	;
56	:	00000000010101010100110010011000	;
57	:	11111111101101110110010111111110	;
58	:	11111111101001110101001001010101	;
59	:	00000000010000111100100111101110	;
60	:	00000000001101100101111111011000	;
61	:	11111111101111111110010111001010	;
62	:	00000000001001001100001011111000	;
63	:	00000000001101010111001111101010	;
64	:	00000000010000110110000100010011	;
65	:	00000000000101001001010100011000	;
66	:	00000000000101111111011000101011	;
67	:	11111111111001011110001101010100	;
68	:	11111111110110110011110100001000	;
69	:	00000000001011100001010001111010	;
70	:	00000000001000111111000101000001	;
71	:	11111111101001111000011011000011	;
72	:	00000000000100111111011111001110	;
73	:	00000000000110111010010111100011	;
74	:	11111111101111000001101111011011	;
75	:	11111111111110110111100101010011	;
76	:	00000000000101111000110101001111	;
77	:	11111111111111110111001001110010	;
78	:	11111111101001111010000011111010	;
79	:	11111111101110000110110000100011	;
80	:	11111111111110010100101011110101	;
81	:	00000000000100010110100001110010	;
82	:	00000000001101011010100001011000	;
83	:	00000000001001001101110100101111	;
84	:	11111111111010000000100111010101	;
85	:	11111111110100011000001010101010	;
86	:	11111111110000001000001100010011	;
87	:	11111111101100010010011011101010	;
88	:	11111111111100111101000001111101	;
89	:	11111111110101101010000101100010	;
90	:	00000000010000000000000000000000	;
91	:	11111111110000000011010001101110	;
92	:	11111111101010111110110111111011	;
93	:	11111111100111010001010011100100	;
94	:	11111111110010000011000100100111	;
95	:	11111111101101000110110111000110	;
96	:	11111111110001110010101100000011	;
97	:	11111111110110010011000010111111	;
98	:	11111111100110110010001011010001	;
99	:	11111111110000001110101111101110	;
100	:	00000000000000110101100100110101	;
101	:	11111111101111111100101110010011	;
102	:	00000000001001100110011001100110	;
103	:	11111111111111101010010111111001	;
104	:	11111111111001110001110111100111	;
105	:	11111111111011111011011111101010	;
106	:	00000000001000110011100111000000	;
107	:	11111111110101100110110011110101	;
108	:	11111111111101111001011111001101	;
109	:	11111111101011010111011100110010	;
110	:	11111111110101000111101011100010	;
111	:	00000000000100001110010101100000	;
112	:	00000000000100100000010110111100	;
113	:	00000000001000001100010010011011	;
114	:	00000000000101110010010001110100	;
115	:	00000000010011001001100001011111	;
116	:	00000000001001011110001101010011	;
117	:	00000000001010110001110001000011	;
118	:	11111111101001111011101100110000	;
119	:	11111111100111100000000011010010	;
120	:	00000000000101101111000000000110	;
121	:	00000000000101111100000110111101	;
122	:	00000000000011011110110100101000	;
123	:	11111111110000010110111100000001	;
124	:	00000000000001011101111000010101	;
125	:	11111111101111001101001101011011	;
126	:	11111111110111010001010011100100	;
127	:	00000000001101000000010011101010	;
128	:	11111111100100100110111010011000	;
129	:	00000000001000010100011110101110	;
130	:	11111111111111111011001100110010	;
131	:	00000000000101011000000100000110	;
132	:	11111111110110111000101110101101	;
133	:	11111111111100101100101001011000	;
134	:	00000000010011010100111111011111	;
135	:	00000000001111101100010101101101	;
136	:	00000000000111111011111001110110	;
137	:	00000000010001100000101010100110	;
138	:	11111111111010010101111010011111	;
139	:	11111111111100101011000000100001	;
140	:	11111111111111100101111100110001	;
141	:	11111111110110111000101110101101	;
142	:	11111111111000010100011110101111	;
143	:	00000000001110110010111111101100	;
144	:	11111111111010010111100011010101	;
145	:	11111111111111011011101000001011	;
146	:	00000000010001010000010010000001	;
147	:	00000000001111010011110000110110	;
148	:	11111111111011100100100011101001	;
149	:	11111111110100011000001010101010	;
150	:	00000000000011001110011100000011	;
151	:	11111111110101001111110111110100	;
152	:	11111111111110000101011100101010	;
153	:	11111111110110111010010111100100	;
154	:	11111111111101011010100001011001	;
155	:	11111111111100010010011011101010	;
156	:	11111111111010001100000101010101	;
157	:	11111111111101110101001110100100	;
158	:	11111111110100110010011000011000	;
159	:	00000000001010010010101000110000	;
160	:	11111111110101111101101111110101	;
161	:	00000000001000100001100101100101	;
162	:	11111111101110111100110100110110	;
163	:	00000000001010000111001010110000	;
164	:	00000000001110110111111010010000	;
165	:	11111111111110000101000111101100	;
166	:	11111111111011111101001000100000	;
167	:	11111111101101111110100100010000	;
168	:	11111111101111101001000100000000	;
169	:	11111111110000011101011111011100	;
170	:	11111111110100101000100011001111	;
171	:	00000000000001001010001110000011	;
172	:	00000000010010000111111111001011	;
173	:	11111111110001100111001110000010	;
174	:	00000000000111001111101010101100	;
175	:	00000000000011011000010001001101	;
176	:	00000000000000100110111111100111	;
177	:	11111111110100110000101111100001	;
178	:	00000000000001010111001010011011	;
179	:	11111111110111111011111001110111	;
180	:	11111111111111110001000111111010	;
181	:	11111111111111000110110100011111	;
182	:	11111111111010110011011001111011	;
183	:	11111111111101011101001001001010	;
184	:	00000000000100000100100000010110	;
185	:	11111111110100110010011000011000	;
186	:	00000000001110100000111110010000	;
187	:	11111111110011111111100101110011	;
188	:	11111111111010110001110001000100	;
189	:	00000000000111110000011011110110	;
190	:	00000000001111001001111011101100	;
191	:	11111111111010001101101110001100	;
192	:	00000000000111001010110000001000	;
193	:	11111111110011011110110100101001	;
194	:	11111111101101110011000110010000	;
195	:	00000000001110100101111000110101	;
196	:	11111111110100011110101110000110	;
197	:	00000000001100111000000111010111	;
198	:	00000000001110110100101000100011	;
199	:	00000000000010011100011101111001	;
200	:	00000000001001001100001011111000	;
201	:	00000000000010101111010011110000	;
202	:	11111111110101100000010000011001	;
203	:	11111111111111111111011110011101	;
204	:	11111111110101001110001110111101	;
205	:	00000000000010001010111011111011	;
206	:	00000000000110000100010011010000	;
207	:	11111111111100101110010010001111	;
208	:	11111111111000011100101011000001	;
209	:	11111111111011111011011111101010	;
210	:	11111111111011111110110001010111	;
211	:	11111111110101000100011001110100	;
212	:	11111111111001011001010010110000	;
213	:	11111111111001011111110110001011	;
214	:	11111111110101111101101111110101	;
215	:	00000000000011101011111011011111	;
216	:	11111111111110100000101001010011	;
217	:	11111111111111001000010010110110	;
218	:	11111111111000101000001001000001	;
219	:	00000000001111001110110110010001	;
220	:	11111111101101110011000110010000	;
221	:	00000000010000100000110001001001	;
222	:	11111111110111011110011010011011	;
223	:	00000000001100011100010000110010	;
224	:	11111111111100111000000111011000	;
225	:	11111111101110000101000111101100	;
226	:	00000000001010010100010001100111	;
227	:	00000000001100010101101101010111	;
228	:	00000000000001010110001011100000	;
229	:	11111111110001110001000011001100	;
230	:	00000000010010010000001011011110	;
231	:	11111111110011101101100100010111	;
232	:	00000000001000101110101100011100	;
233	:	11111111111011100010111010110010	;
234	:	11111111111011111110110001010111	;
235	:	11111111111100000010000011000101	;
236	:	11111111110111111010010001000000	;
237	:	11111111111110001000011001011010	;
238	:	11111111110000010011101010010011	;
239	:	11111111111111101110010011100011	;
240	:	11111111110111011011001000101110	;
241	:	00000000000000011010101101001011	;
242	:	00000000000001001110001001101101	;
243	:	11111111111011010111011100110010	;
244	:	00000000000100100110111010010111	;
245	:	11111111110101000010110000111101	;
246	:	00000000000000001101010001010110	;
247	:	00000000001011000000100000110001	;
248	:	00000000000110000010101010011001	;
249	:	11111111110001100101100101001011	;
250	:	00000000010100001100101100101001	;
251	:	11111111111111000001100100111100	;
252	:	11111111110110100011011011100011	;
253	:	00000000001011110110100101000100	;
254	:	00000000000101011000000100000110	;
255	:	11111111101100111110101010110100	;
256	:	11111111101110001101010011111110	;
257	:	00000000000101100011100010000110	;
258	:	11111111110000100101101011101111	;
259	:	00000000001111110001010000010010	;
260	:	00000000000000011101010100111100	;
261	:	11111111110111010010111100011011	;
262	:	11111111111101110011110000001101	;
263	:	11111111111111000011011000010010	;
264	:	00000000000000001010001010000111	;
265	:	00000000000011001100110011001100	;
266	:	00000000000011111010101011001101	;
267	:	11111111110111000111011110011011	;
268	:	00000000000010100011101011010001	;
269	:	11111111111100110110011110100001	;
270	:	11111111111111011001000000011001	;
271	:	00000000000010101000110000010101	;
272	:	11111111111001100100110000110000	;
273	:	00000000000100100001111111110010	;
274	:	11111111110111101000001111100101	;
275	:	11111111101110010000100101101100	;
276	:	00000000001000011100101011000000	;
277	:	00000000001111010011110000110110	;
278	:	11111111101111000000000110100100	;
279	:	11111111101111101100010101101110	;
280	:	00000000000010001011110000010110	;
281	:	11111111110111011001011111110111	;
282	:	00000000000100010011010000000100	;
283	:	11111111111000000000110100011100	;
284	:	00000000010100100101010001100000	;
285	:	11111111110001110100010100111001	;
286	:	00000000000110100101000100011001	;
287	:	11111111110111001100011001000000	;
288	:	11111111110110000010101010011010	;
289	:	00000000000010100011000001010101	;
290	:	00000000000110000101111100000110	;
291	:	00000000000000110011011100100001	;
292	:	11111111101101101100100010110101	;
293	:	11111111111011000000100000110010	;
294	:	11111111110000111100100111101111	;
295	:	11111111111010111000010100011111	;
296	:	11111111111011000000100000110010	;
297	:	00000000000001001100101011010101	;
298	:	00000000000010001010011100011101	;
299	:	11111111111110100011010001000100	;
300	:	00000000000101001111110111110011	;
301	:	00000000001001001000111010001010	;
302	:	11111111111001011010111011100111	;
303	:	11111111111001100100110000110000	;
304	:	11111111101010011001001100001100	;
305	:	00000000001110001011101011000111	;
306	:	11111111110100110000101111100001	;
307	:	00000000001010000111001010110000	;
308	:	11111111110011001110011100000100	;
309	:	11111111110001010011100011110000	;
310	:	11111111111111010101100100001101	;
311	:	00000000010001100000101010100110	;
312	:	11111111111010110011011001111011	;
313	:	11111111111100101111111011000110	;
314	:	11111111111101101001111011000011	;
315	:	11111111111001001010100011000010	;
316	:	00000000001001110101001001010100	;
317	:	00000000000110000101111100000110	;
318	:	11111111110100100011101000101010	;
319	:	00000000010010011010000000100111	;
320	:	00000000000011100101011000000100	;
321	:	11111111111100101100101001011000	;
322	:	11111111110011101011111011100000	;
323	:	11111111111110111010101100100010	;
324	:	00000000010001101000110110111000	;
325	:	11111111110011111101111100111100	;
326	:	11111111111000111010001010011101	;
327	:	00000000000010110000111100100111	;
328	:	11111111110101011100111110101011	;
329	:	11111111111000011001011001010011	;
330	:	00000000001111100010100000100100	;
331	:	11111111101100101110010010001111	;
332	:	11111111110100100011101000101010	;
333	:	11111111110000001000001100010011	;
334	:	00000000000010111111101100010101	;
335	:	00000000001010000000100111010100	;
336	:	00000000000111001110000001110101	;
337	:	00000000000001010110010101111111	;
338	:	11111111110100111010100100101011	;
339	:	00000000000000011111011101010001	;
340	:	11111111101000011111111100101111	;
341	:	00000000000010001011110000010110	;
342	:	11111111111100000101010100110011	;
343	:	00000000001001110001110111100110	;
344	:	11111111110100011011011100011000	;
345	:	00000000001001011111110110001010	;
346	:	11111111110101001001010100011001	;
347	:	00000000000100101101011101110011	;
348	:	00000000000011101010010010101000	;
349	:	00000000000111001010110000001000	;
350	:	11111111111011100111110101010111	;
351	:	11111111111110010010011001000010	;
352	:	00000000000000100010100100011111	;
353	:	00000000000100100011101000101001	;
354	:	00000000001000001101111011010010	;
355	:	11111111111110010011000010111111	;
356	:	11111111111101000001111100100010	;
357	:	00000000000101111010011110000110	;
358	:	11111111110111000111011110011011	;
359	:	11111111101011011111101001000100	;
360	:	11111111111110100010111100000110	;
361	:	11111111111001011001010010110000	;
362	:	11111111101001110101001001010101	;
363	:	11111111101011001111010000100000	;
364	:	11111111110010101111010011110001	;
365	:	11111111101100011000111111000110	;
366	:	11111111110001101101110001011110	;
367	:	00000000010000000110100011011011	;
368	:	11111111111100001111001001111100	;
369	:	00000000000001010010111001110010	;
370	:	00000000000110111101101001010001	;
371	:	00000000000001110001000011001011	;
372	:	00000000000101010011001001100001	;
373	:	00000000000001111110111110011101	;
374	:	00000000010101001001010100011000	;
375	:	00000000000011011000010001001101	;
376	:	00000000000011110100000111110010	;
377	:	11111111101111101001000100000000	;
378	:	00000000001000001101111011010010	;
379	:	11111111111110100111000010001111	;
380	:	00000000001011110100111100001101	;
381	:	11111111110110101110111001100100	;
382	:	00000000001001101110100101111000	;
383	:	11111111110011100111000000111011	;
384	:	00000000001001001111011101100101	;
385	:	00000000001011111001110110110010	;
386	:	00000000010000000011010001101101	;
387	:	11111111110010100101011110101000	;
388	:	00000000000011111100010100000100	;
389	:	11111111111000000010011101010011	;
390	:	00000000001000100100110111010010	;
391	:	00000000001110111110011101101100	;
392	:	00000000001101110011000110001111	;
393	:	11111111110110100011011011100011	;
394	:	11111111101101100111101000010000	;
395	:	11111111110000001110101111101110	;
396	:	00000000001111010111000010100011	;
397	:	11111111111010000010010000001100	;
398	:	11111111111110111100010101011001	;
399	:	11111111111011101011000111000101	;
400	:	00000000000111101101001010001000	;
401	:	11111111111101011111000110111111	;
402	:	11111111111001100011000111111001	;
403	:	00000000001001101100111101000001	;
404	:	00000000001010101100110110011110	;
405	:	11111111110101000010110000111101	;
406	:	11111111111111111001000011011010	;
407	:	00000000000001000001101100110010	;
408	:	00000000001000111011110011010011	;
409	:	11111111111001101001101011010101	;
410	:	00000000000110100101000100011001	;
411	:	00000000000110101001111110111110	;
412	:	11111111111100010000110010110011	;
413	:	11111111110111001111101010101101	;
414	:	11111111111000110001111110001011	;
415	:	11111111111101111111111000001001	;
416	:	11111111101111101010101100110111	;
417	:	11111111111111110100011001100111	;
418	:	11111111111010111001111101010110	;
419	:	11111111110100100011101000101010	;
420	:	11111111101011110001101010100000	;
421	:	00000000000111001111101010101100	;
422	:	11111111110000001011011110000001	;
423	:	00000000000101101000011100101011	;
424	:	11111111111110001011001011101010	;
425	:	00000000001001110110110010001011	;
426	:	00000000001110110010111111101100	;
427	:	00000000001010011111101111100111	;
428	:	00000000000010111001001000111010	;
429	:	00000000001000010110000111100100	;
430	:	00000000001000000101101111000000	;
431	:	11111111110110100001110010101101	;
432	:	00000000001110010000100101101011	;
433	:	11111111111001000000101101111001	;
434	:	11111111111101101100011000010110	;
435	:	11111111111111101100100000001101	;
436	:	00000000000010100101011110100111	;
437	:	00000000001001110101001001010100	;
438	:	11111111111110100010110001100111	;
439	:	11111111111011001000101101000100	;
440	:	00000000001001000000101101111000	;
441	:	00000000000111001110000001110101	;
442	:	11111111110100001100101100101010	;
443	:	11111111110111010111110111000000	;
444	:	00000000001101000101001110001110	;
445	:	00000000010000110100011011011100	;
446	:	00000000001101101111110100100001	;
447	:	00000000001111000110101001111110	;
448	:	00000000000101111000110101001111	;
449	:	11111111111111101100000000110000	;
450	:	00000000000110010011000010111110	;
451	:	11111111111110011110000001100001	;
452	:	00000000000100011101000101001110	;
453	:	11111111110110001100011111100011	;
454	:	11111111111011010111011100110010	;
455	:	11111111111101000000010011101011	;
456	:	00000000000011111001000010010110	;
457	:	11111111111011010111011100110010	;
458	:	11111111111010011110000110110001	;
459	:	00000000000101111000110101001111	;
460	:	00000000000001101111101111010010	;
461	:	00000000000101001110001110111100	;
462	:	11111111111001010010101111010100	;
463	:	00000000010101111111011000101011	;
464	:	11111111111010001101101110001100	;
465	:	00000000000111000000111010111110	;
466	:	00000000000111011001011111110110	;
467	:	00000000000100010001100111001110	;
468	:	11111111111101000001111100100010	;
469	:	00000000000011110010011110111011	;
470	:	11111111111110111011000001100000	;
471	:	00000000000010001000011110101000	;
472	:	00000000001001110110110010001011	;
473	:	11111111101100111000000111011000	;
474	:	00000000001001001100001011111000	;
475	:	00000000010100110111010010111100	;
476	:	00000000001011100010111010110001	;
477	:	00000000000111000010100011110101	;
478	:	00000000001001100110011001100110	;
479	:	11111111110001100000101010100111	;
480	:	11111111110110101101010000101101	;
481	:	00000000001001001100001011111000	;
482	:	11111111111000111111000101000010	;
483	:	00000000000000101111000001011010	;
484	:	00000000000100100000010110111100	;
485	:	00000000000101110010010001110100	;
486	:	00000000001001111011101100101111	;
487	:	11111111110011010100111111100000	;
488	:	11111111111010100100101010001101	;
489	:	00000000001000101011011010101110	;
490	:	00000000000100110101101010000101	;
491	:	11111111110100100110111010011000	;
492	:	00000000001000111111000101000001	;
493	:	11111111111000110110111000101111	;
494	:	11111111110110010111111101100011	;
495	:	00000000000111001110000001110101	;
496	:	11111111110111100110100110101110	;
497	:	00000000000100011001110011100000	;
498	:	00000000000100001011000011110010	;
499	:	00000000000011000010111110000011	;
500	:	11111111100110101001111110111111	;
501	:	11111111110100101101011101110100	;
502	:	11111111110000100000110001001010	;
503	:	00000000001110111110011101101100	;
504	:	00000000000101111010011110000110	;
505	:	11111111111011011010101110100000	;
506	:	00000000001001110001110111100110	;
507	:	11111111110001010101001100100111	;
508	:	11111111111010110101000010110001	;
509	:	00000000000000011010100010101100	;
510	:	00000000001100000110111101101001	;
511	:	00000000000001100111100011000000	;
512	:	11111111111001101100111101000010	;
513	:	00000000001001001100001011111000	;
514	:	11111111111011010111011100110010	;
515	:	11111111110100001100101100101010	;
516	:	00000000000110010111111101100010	;
517	:	00000000010001101101110001011101	;
518	:	11111111111111001100100011011111	;
519	:	00000000001111001101001101011010	;
520	:	00000000001000101110101100011100	;
521	:	11111111111010100100101010001101	;
522	:	00000000001111011011111101001000	;
523	:	11111111101100010010011011101010	;
524	:	00000000010001010001111010111000	;
525	:	11111111110100011110101110000110	;
526	:	00000000000000000010001110100110	;
527	:	11111111111101101101001100110001	;
528	:	11111111111000100011001110011101	;
529	:	11111111101111011010010100010010	;
530	:	00000000000111111101100010101101	;
531	:	00000000010010001001101000000010	;
532	:	11111111111001100011000111111001	;
533	:	00000000000110011100111000000111	;
534	:	11111111110001100011111100010101	;
535	:	00000000001001111011101100101111	;
536	:	11111111111000101110101100011101	;
537	:	00000000001001101110100101111000	;
538	:	11111111111000010001001101000001	;
539	:	11111111111011010101110011111011	;
540	:	00000000000011000110001111110001	;
541	:	11111111110110000001000001100011	;
542	:	11111111111001100110011001100111	;
543	:	11111111110111100001101100001001	;
544	:	00000000000010001010110001011100	;
545	:	11111111110100101111000110101010	;
546	:	11111111111010100011000001010110	;
547	:	11111111110110000101111100000111	;
548	:	11111111111011101011000111000101	;
549	:	00000000001010110110101011100111	;
550	:	11111111110100100001111111110011	;
551	:	00000000001000000111010111110110	;
552	:	11111111110101010100110010011001	;
553	:	11111111110101000111101011100010	;
554	:	11111111110110000101111100000111	;
555	:	11111111111101100111101000010000	;
556	:	00000000001011110000000001101000	;
557	:	00000000000000010001010111011111	;
558	:	00000000000011101000101001110001	;
559	:	00000000010100110010011000010111	;
560	:	00000000000010111100011010100111	;
561	:	00000000010101011011010101110011	;
562	:	00000000000001100010101000011011	;
563	:	00000000010100100110111010010111	;
564	:	11111111110101101010000101100010	;
565	:	11111111110111010111110111000000	;
566	:	11111111110000010010000001011100	;
567	:	00000000001110100101111000110101	;
568	:	11111111101010010100010001101000	;
569	:	11111111110001011011110000000010	;
570	:	00000000001100011101111001101001	;
571	:	11111111101111111110010111001010	;
572	:	11111111110110101101010000101101	;
573	:	00000000001001010111101001111000	;
574	:	00000000001100000000011010001101	;
575	:	00000000000000011111001000010010	;
576	:	11111111111001111000011011000011	;
577	:	11111111110101110010010001110101	;
578	:	11111111110111101001111000011100	;
579	:	00000000001011010100001011000011	;
580	:	11111111101010101100110110011111	;
581	:	11111111110101100101001010111110	;
582	:	00000000000010100010110110110110	;
583	:	00000000000100001110010101100000	;
584	:	11111111111100110001100011111101	;
585	:	11111111101011010101110011111011	;
586	:	11111111111100111011011001000110	;
587	:	11111111101111010010001000000000	;
588	:	11111111101111011101100110000000	;
589	:	11111111110111100110100110101110	;
590	:	11111111101111101001000100000000	;
591	:	11111111111001101001101011010101	;
592	:	11111111111010010010101000110001	;
593	:	11111111110111110110111111010011	;
594	:	00000000000101111101101111110100	;
595	:	11111111101101001000011111111101	;
596	:	00000000000101110111001100011000	;
597	:	11111111110101000111101011100010	;
598	:	00000000001010101110011111010101	;
599	:	00000000000001101100101000000011	;
600	:	11111111110101001010111101010000	;
601	:	11111111110101101111000000000111	;
602	:	11111111111010000010010000001100	;
603	:	11111111110111011001011111110111	;
604	:	00000000001010000101100001111001	;
605	:	11111111110110000111100100111110	;
606	:	00000000001001100001011111000001	;
607	:	11111111111010010111100011010101	;
608	:	00000000001101100111101000001111	;
609	:	00000000010100110000101111100000	;
610	:	11111111111100111000000111011000	;
611	:	00000000010001000100110100000001	;
612	:	00000000001000010111110000011011	;
613	:	11111111111010011010110101000011	;
614	:	11111111111100011000111111000110	;
615	:	11111111111001000101101000011101	;
616	:	11111111101111100111011011001001	;
617	:	00000000000111101101001010001000	;
618	:	00000000001110001011101011000111	;
619	:	00000000010100110100000001001110	;
620	:	00000000001110001101010011111101	;
621	:	11111111110010100111000111011111	;
622	:	11111111111001011111110110001011	;
623	:	11111111111000011001011001010011	;
624	:	00000000000100100101010001100000	;
625	:	11111111101100100110000101111101	;
626	:	11111111110001000110011100111001	;
627	:	00000000001100101100101001010111	;
628	:	00000000000001010111010100111010	;
629	:	00000000000110110101011100111110	;
630	:	11111111110111010100100101010010	;
631	:	00000000001101110011000110001111	;
632	:	00000000000011011011100010111010	;
633	:	00000000000111111111001011100100	;
634	:	11111111111101010111001111101011	;
635	:	00000000000111001100011000111111	;
636	:	00000000000010110101110111001100	;
637	:	00000000000011011000010001001101	;
638	:	11111111110000001001110101001010	;
639	:	11111111101101101111110100100010	;
640	:	00000000000001010111101001111000	;
641	:	11111111101100010111010110001111	;
642	:	00000000010101110101100011100010	;
643	:	00000000001101101001010001000110	;
644	:	11111111111010110000001000001101	;
645	:	00000000000111001010110000001000	;
646	:	11111111101111000001101111011011	;
647	:	11111111111001010111101001111001	;
648	:	00000000001100001111001001111011	;
649	:	00000000000011111101111100111011	;
650	:	00000000001100010010011011101001	;
651	:	00000000000010010001101001110101	;
652	:	11111111111100111001110000001111	;
653	:	00000000001110000000001101000110	;
654	:	11111111111001000010010110101111	;
655	:	11111111110111101101001010001001	;
656	:	11111111111010000000100111010101	;
657	:	11111111111001001010100011000010	;
658	:	11111111111111110010101111101101	;
659	:	11111111111101011101101000101000	;
660	:	11111111110110011011001111010001	;
661	:	00000000001010000010010000001011	;
662	:	00000000001010001010011100011101	;
663	:	11111111101100100100011101000110	;
664	:	00000000000110010110010100101011	;
665	:	00000000001001101001101011010100	;
666	:	11111111110000100000110001001010	;
667	:	00000000000101001110001110111100	;
668	:	11111111101101001000011111111101	;
669	:	00000000001101100010101101101010	;
670	:	11111111101111000001101111011011	;
671	:	00000000010000100010011010000000	;
672	:	11111111110100101000100011001111	;
673	:	00000000001011000000100000110001	;
674	:	00000000010011111010101011001101	;
675	:	00000000000010010010101000110000	;
676	:	11111111110001001110101001001011	;
677	:	00000000000101110101100011100010	;
678	:	11111111110110000010101010011010	;
679	:	00000000001000001001000000101101	;
680	:	00000000000010100010000010011010	;
681	:	00000000000010001010110001011100	;
682	:	11111111110110111100000000011011	;
683	:	00000000010000000011010001101101	;
684	:	11111111111010101100110110011111	;
685	:	00000000000010011111010000001010	;
686	:	11111111111110110100111101100010	;
687	:	11111111111100001000100110100001	;
688	:	11111111111010101110011111010110	;
689	:	11111111111011011100010111010111	;
690	:	11111111110100011110101110000110	;
691	:	00000000000101101010000101100001	;
692	:	11111111110101101011101110011001	;
693	:	00000000001011011001000101101000	;
694	:	11111111111001110110110010001100	;
695	:	11111111111110010101000000110100	;
696	:	11111111110011101011111011100000	;
697	:	00000000000011010011010110101000	;
698	:	11111111110110110010001011010001	;
699	:	11111111111010010101111010011111	;
700	:	00000000001000000101101111000000	;
701	:	00000000000101101101010111001111	;
702	:	00000000000101000010110000111100	;
703	:	11111111101100100100011101000110	;
704	:	00000000000001001010110111111111	;
705	:	00000000010001010110110101011100	;
706	:	00000000000101110111001100011000	;
707	:	00000000000000011001111000110000	;
708	:	00000000000101010110011011001111	;
709	:	11111111101110000001110101111110	;
710	:	11111111111011111101001000100000	;
711	:	11111111101010011110000110110001	;
712	:	11111111110111000101110101100100	;
713	:	00000000000100000110001001001101	;
714	:	11111111101001110110110010001100	;
715	:	00000000001001011110001101010011	;
716	:	11111111101100111110101010110100	;
717	:	11111111110000011000100100111000	;
718	:	00000000000110100011011011100010	;
719	:	11111111110010111111101100010110	;
720	:	11111111101011001010010101111011	;
721	:	11111111110110011100111000001000	;
722	:	11111111110000101010100110010100	;
723	:	00000000000010101101101010111001	;
724	:	11111111101111110100100010000000	;
725	:	00000000010010010110101110111001	;
726	:	11111111101110000000001101000111	;
727	:	00000000000001111111010011011011	;
728	:	11111111101011100100100011101001	;
729	:	00000000001100101100101001010111	;
730	:	11111111110001010110110101011101	;
731	:	00000000000111011011001000101101	;
732	:	00000000000001010001000110011100	;
733	:	00000000000100010001100111001110	;
734	:	11111111110101001010111101010000	;
735	:	11111111111001010100011000001011	;
736	:	00000000000011000111111000101000	;
737	:	11111111111100100010110100001111	;
738	:	00000000000011111100010100000100	;
739	:	00000000001011100111110101010110	;
740	:	11111111101010110101000010110001	;
741	:	11111111110110001010110110101100	;
742	:	11111111101110100010100111001000	;
743	:	11111111101101010101100110110100	;
744	:	00000000000001000010100001001101	;
745	:	00000000001001000111010001010011	;
746	:	11111111111101001111000011011001	;
747	:	00000000000000101000111101011100	;
748	:	00000000001111101010101100110110	;
749	:	00000000001001000010010110101110	;
750	:	11111111101001101000000010011110	;
751	:	11111111111000011100101011000001	;
752	:	11111111111000001001000000101110	;
753	:	11111111110111001010110000001001	;
754	:	00000000001000001111100100001001	;
755	:	00000000000100001111111110010111	;
756	:	00000000001100001000100110100000	;
757	:	00000000001111001110110110010001	;
758	:	00000000001011101110011000110001	;
759	:	00000000000101111100000110111101	;
760	:	11111111110111100000000011010010	;
761	:	11111111101010110011011001111011	;
762	:	00000000000110110011110100000111	;
763	:	11111111111000110001111110001011	;
764	:	00000000010011111101111100111011	;
765	:	11111111110000110100011011011101	;
766	:	11111111111101000101001110001111	;
767	:	00000000010000110010110010100101	;
768	:	11111111101111110110001010110111	;
769	:	00000000000100111111011111001110	;
770	:	11111111110101101000011100101100	;
771	:	11111111111101010101100110110100	;
772	:	11111111110111100011010101000000	;
773	:	11111111111111010101001111001110	;
774	:	11111111110011001011001010010110	;
775	:	11111111111111111110010000110111	;
776	:	11111111111100011101111001101010	;
777	:	00000000000000010100101001001101	;
778	:	00000000001011101001011110001101	;
779	:	00000000000110001100011111100010	;
780	:	00000000000011001001100001011111	;
781	:	11111111110110001010110110101100	;
782	:	11111111110011000110001111110010	;
783	:	11111111110111000100001100101101	;			

END;
