-- Copyright (C) 2020  Intel Corporation. All rights reserved.
-- Your use of Intel Corporation's design tools, logic functions 
-- and other software and tools, and any partner logic 
-- functions, and any output files from any of the foregoing 
-- (including device programming or simulation files), and any 
-- associated documentation or information are expressly subject 
-- to the terms and conditions of the Intel Program License 
-- Subscription Agreement, the Intel Quartus Prime License Agreement,
-- the Intel FPGA IP License Agreement, or other applicable license
-- agreement, including, without limitation, that your use is for
-- the sole purpose of programming logic devices manufactured by
-- Intel and sold by Intel or its authorized distributors.  Please
-- refer to the applicable agreement for further details, at
-- https://fpgasoftware.intel.com/eula.

-- Quartus Prime generated Memory Initialization File (.mif)

WIDTH=32;
DEPTH=784;

ADDRESS_RADIX=UNS;
DATA_RADIX=BIN;

CONTENT BEGIN

0	:	00000000010100000111110010000100	;
1	:	11111111101011101001011110001110	;
2	:	11111111101100110110011110100001	;
3	:	11111111111010011110000110110001	;
4	:	00000000001000001100010010011011	;
5	:	00000000010000000000000000000000	;
6	:	11111111101011001000101101000100	;
7	:	00000000000010100011000001010101	;
8	:	11111111111101110111000001111010	;
9	:	00000000010101101010000101100001	;
10	:	00000000000110111010010111100011	;
11	:	11111111110001011111000001110000	;
12	:	11111111101110000110110000100011	;
13	:	00000000010001000110011100111000	;
14	:	00000000010011010011010110101000	;
15	:	00000000001010010010101000110000	;
16	:	00000000001110001101010011111101	;
17	:	11111111101011001000101101000100	;
18	:	11111111111011101100101111111100	;
19	:	11111111111001100011000111111001	;
20	:	11111111111101110101100011100011	;
21	:	00000000001110001000011001011001	;
22	:	00000000001001110011100000011101	;
23	:	00000000000011001011001010010101	;
24	:	11111111111011011001000101101001	;
25	:	00000000010011010100111111011111	;
26	:	00000000001001110101001001010100	;
27	:	11111111110001110100010100111001	;
28	:	00000000001111011011111101001000	;
29	:	11111111101100101001010111101010	;
30	:	00000000000110011001100110011001	;
31	:	11111111111000110110111000101111	;
32	:	11111111111100101111111011000110	;
33	:	11111111111011100100100011101001	;
34	:	00000000000010001100101111010001	;
35	:	11111111101011011010101110100000	;
36	:	00000000001110111100110100110101	;
37	:	00000000000110000010101010011001	;
38	:	00000000010000010110111100000000	;
39	:	00000000001111001110110110010001	;
40	:	00000000000001111110011111000000	;
41	:	11111111101010010000111111111010	;
42	:	11111111110111011110011010011011	;
43	:	11111111111000010010110101111000	;
44	:	00000000001000111101011100001010	;
45	:	00000000000110101000010110000111	;
46	:	11111111111000000000110100011100	;
47	:	00000000001010100100101010001100	;
48	:	00000000000110110101011100111110	;
49	:	11111111111001100011000111111001	;
50	:	00000000000110001111110001010000	;
51	:	00000000001101101001010001000110	;
52	:	11111111111110111000011001101111	;
53	:	00000000001100000110111101101001	;
54	:	11111111101011110001101010100000	;
55	:	00000000010011100111000000111010	;
56	:	00000000001100101001010111101001	;
57	:	11111111111001110011100000011110	;
58	:	11111111101001111110111110011110	;
59	:	00000000001011001101100111101000	;
60	:	11111111111011010010100010001101	;
61	:	00000000000110011001100110011001	;
62	:	11111111110010000001011011110001	;
63	:	11111111110000010101010011001010	;
64	:	00000000001010100110010011000010	;
65	:	00000000001110100101111000110101	;
66	:	11111111111111010101100100001101	;
67	:	00000000001110010111001001000111	;
68	:	00000000000100100000010110111100	;
69	:	11111111111000101001110001111000	;
70	:	00000000000110011110100000111110	;
71	:	11111111110110000010101010011010	;
72	:	11111111101001111000011011000011	;
73	:	00000000000100101111000110101001	;
74	:	11111111110010000111111111001100	;
75	:	00000000001110001101010011111101	;
76	:	00000000010011101011111011011111	;
77	:	00000000010001001001101110100101	;
78	:	00000000000000111110011011000100	;
79	:	00000000010001100011111100010100	;
80	:	00000000000101011000000100000110	;
81	:	00000000001001110101001001010100	;
82	:	11111111101010110011011001111011	;
83	:	11111111110000100000110001001010	;
84	:	11111111110011100010000110010111	;
85	:	11111111110001110001000011001100	;
86	:	00000000000000011101101001111011	;
87	:	00000000000011111010101011001101	;
88	:	00000000000111101011100001010001	;
89	:	11111111111110110001000001111000	;
90	:	11111111111001101011010100001100	;
91	:	11111111110111110011101101100101	;
92	:	11111111110011011011100010111011	;
93	:	00000000000001010111110100010111	;
94	:	00000000001101110110010111111101	;
95	:	11111111110010001110100010101000	;
96	:	00000000000100000111110010000100	;
97	:	00000000001111100010100000100100	;
98	:	11111111101100101001010111101010	;
99	:	00000000000100100101010001100000	;
100	:	00000000001001101100111101000001	;
101	:	11111111111101111000111111101111	;
102	:	00000000001010011111101111100111	;
103	:	00000000001111100000110111101101	;
104	:	11111111101101100101111111011001	;
105	:	00000000000001100000000000101001	;
106	:	11111111101010001111010111000011	;
107	:	00000000001100000010000011000100	;
108	:	11111111111100111110101010110100	;
109	:	11111111111001101001101011010101	;
110	:	11111111101100010000110010110011	;
111	:	11111111110101110111001100011001	;
112	:	11111111110001100010010011011110	;
113	:	00000000000011010110101000010110	;
114	:	00000000010001010001111010111000	;
115	:	11111111101111111110010111001010	;
116	:	11111111111011011111101001000100	;
117	:	00000000001001110110110010001011	;
118	:	11111111111010010000111111111010	;
119	:	11111111111111001001010001110001	;
120	:	11111111111010111011100110001101	;
121	:	11111111110101100110110011110101	;
122	:	00000000001111110001010000010010	;
123	:	11111111110111101011100001010010	;
124	:	00000000000111111010010000111111	;
125	:	11111111110110000101111100000111	;
126	:	00000000001010001101101110001011	;
127	:	11111111111000001010101001100101	;
128	:	00000000001001101110100101111000	;
129	:	11111111110001001011010111011101	;
130	:	11111111111101011110001000000101	;
131	:	11111111111111001101010111111010	;
132	:	00000000001000100011001110011100	;
133	:	11111111101111010011110000110111	;
134	:	00000000000011010000000100111010	;
135	:	00000000001111011111001110110110	;
136	:	00000000001010001000110011100111	;
137	:	11111111111001011110001101010100	;
138	:	11111111110010111010110001110010	;
139	:	11111111110100000111110010000101	;
140	:	11111111110011000100100110111011	;
141	:	11111111111000100110100000001010	;
142	:	11111111101010101100110110011111	;
143	:	11111111111101000001111100100010	;
144	:	00000000010000100010011010000000	;
145	:	00000000000100110000101111100000	;
146	:	00000000000001111111111101011000	;
147	:	00000000001110110010111111101100	;
148	:	11111111110101101101010111010000	;
149	:	00000000010000000011010001101101	;
150	:	11111111111001000111010001010100	;
151	:	11111111111001010100011000001011	;
152	:	00000000000000001011011001110011	;
153	:	00000000001000001010101001100100	;
154	:	11111111110010000111111111001100	;
155	:	00000000000111100001101100001000	;
156	:	11111111111110011100001110001100	;
157	:	00000000000110111010010111100011	;
158	:	11111111111011010100001011000100	;
159	:	11111111111100000101010100110011	;
160	:	00000000000000011011001100101000	;
161	:	11111111110111011110011010011011	;
162	:	11111111111010000010010000001100	;
163	:	11111111100110110010001011010001	;
164	:	11111111110101101000011100101100	;
165	:	11111111111111111110011111110111	;
166	:	11111111111011000101011011010110	;
167	:	11111111110100001100101100101010	;
168	:	00000000000111000000111010111110	;
169	:	00000000010010110111100000000011	;
170	:	11111111110110100001110010101101	;
171	:	11111111110101110010010001110101	;
172	:	11111111111011000010001001101001	;
173	:	11111111110101001001010100011001	;
174	:	00000000000100011011011100010111	;
175	:	11111111111101101111111111000010	;
176	:	11111111110001010101001100100111	;
177	:	00000000001000100001100101100101	;
178	:	00000000000111010111110110111111	;
179	:	00000000000101011001101100111101	;
180	:	11111111111010001000110011101000	;
181	:	00000000000011111010101011001101	;
182	:	00000000001000001101111011010010	;
183	:	11111111111010010111100011010101	;
184	:	11111111111111111011001111111011	;
185	:	11111111111110010011000010111111	;
186	:	11111111111100010100000100100001	;
187	:	00000000000001010011011001010000	;
188	:	00000000000100010011010000000100	;
189	:	00000000000111110010000100101101	;
190	:	11111111111101100100101011100000	;
191	:	00000000001110001000011001011001	;
192	:	11111111111111011101111010111110	;
193	:	11111111111000110001111110001011	;
194	:	11111111110101011100111110101011	;
195	:	00000000001110001101010011111101	;
196	:	00000000010011110010011110111011	;
197	:	11111111111011000011110010011111	;
198	:	11111111101100110011001100110100	;
199	:	11111111111011100001010001111011	;
200	:	00000000010000011011110110100101	;
201	:	00000000000110001110001000011001	;
202	:	00000000000110001100011111100010	;
203	:	00000000000111101101001010001000	;
204	:	00000000000110000001000001100010	;
205	:	11111111110111000010100011110110	;
206	:	11111111111101000011100101011001	;
207	:	11111111111010110001110001000100	;
208	:	00000000000111000000111010111110	;
209	:	11111111110111010100100101010010	;
210	:	11111111111110111111010010001000	;
211	:	00000000001100010000110010110010	;
212	:	11111111111011001101100111101001	;
213	:	00000000000011101000101001110001	;
214	:	00000000000011100111000000111010	;
215	:	00000000000110111000101110101100	;
216	:	11111111110001011101011000111001	;
217	:	11111111111111001101001101011011	;
218	:	11111111110000111111111001011101	;
219	:	11111111110001100000101010100111	;
220	:	00000000001011110100111100001101	;
221	:	11111111110110111000101110101101	;
222	:	11111111111111101011110110010001	;
223	:	00000000010011001001100001011111	;
224	:	00000000001111000011011000010001	;
225	:	11111111110011001011001010010110	;
226	:	11111111110111000000111010111111	;
227	:	11111111101101101110001011101100	;
228	:	00000000001010001100000101010100	;
229	:	11111111110001110101111101110000	;
230	:	11111111111000100011001110011101	;
231	:	11111111110100101010001100000110	;
232	:	00000000000111000010100011110101	;
233	:	11111111110111010100100101010010	;
234	:	00000000001100010111010110001110	;
235	:	11111111111000001111100100001010	;
236	:	00000000001001101001101011010100	;
237	:	11111111111111110010001101000111	;
238	:	00000000000000101010110000110010	;
239	:	11111111110110001001001101110101	;
240	:	00000000000010111100011010100111	;
241	:	11111111111011001010010101111011	;
242	:	00000000000001011011010000100100	;
243	:	11111111110111001010110000001001	;
244	:	00000000010001001011010111011100	;
245	:	11111111111011111110110001010111	;
246	:	00000000001111000001101111011010	;
247	:	11111111101101101001010001000111	;
248	:	00000000000100010100111000111011	;
249	:	00000000000010001101000100001111	;
250	:	00000000001001100001011111000001	;
251	:	11111111110111100100111101110111	;
252	:	00000000010001111110001010000010	;
253	:	11111111101110010000100101101100	;
254	:	11111111110010110111100000000100	;
255	:	00000000001101011100001010001111	;
256	:	00000000000110011100111000000111	;
257	:	11111111110101011011010101110100	;
258	:	00000000001101100111101000001111	;
259	:	00000000001000101000001001000000	;
260	:	11111111110111111011111001110111	;
261	:	00000000001001011010111011100110	;
262	:	11111111110101011110100111100010	;
263	:	11111111111101111010111101100101	;
264	:	11111111110100101000100011001111	;
265	:	00000000000100111010100100101010	;
266	:	11111111111011010010100010001101	;
267	:	00000000001000101000001001000000	;
268	:	00000000000011101000101001110001	;
269	:	00000000000100110000101111100000	;
270	:	11111111111111000111011110011011	;
271	:	00000000000100100011101000101001	;
272	:	11111111110101001001010100011001	;
273	:	00000000000100111101110110010111	;
274	:	11111111111100000101010100110011	;
275	:	11111111111100110100110101101011	;
276	:	11111111110110101001111110111111	;
277	:	11111111111001111101010101100111	;
278	:	11111111110100001011000011110011	;
279	:	11111111110001110010101100000011	;
280	:	11111111111000001010101001100101	;
281	:	11111111101100010100000100100001	;
282	:	11111111110010000001011011110001	;
283	:	11111111110010100111000111011111	;
284	:	00000000001101011111011011111101	;
285	:	00000000001101010011111101111100	;
286	:	11111111110011100011101111001110	;
287	:	00000000000001101100111101000001	;
288	:	11111111111110001000001110111011	;
289	:	11111111110000110100011011011101	;
290	:	00000000000110101001111110111110	;
291	:	11111111110110100110101101010001	;
292	:	00000000000000111110010000100101	;
293	:	11111111111100101110010010001111	;
294	:	00000000000010010011001000001101	;
295	:	11111111111101100111010011010010	;
296	:	00000000000001001010011000100010	;
297	:	11111111111101101101001100110001	;
298	:	00000000000011011101001011110001	;
299	:	00000000000101001100100110000101	;
300	:	00000000000101011100111110101010	;
301	:	00000000001101100101111111011000	;
302	:	11111111111010011001001100001100	;
303	:	11111111110001111100100001001100	;
304	:	11111111110001001000000101110000	;
305	:	00000000001011001000101101000011	;
306	:	00000000010010110010100101011110	;
307	:	11111111111001010110000001000010	;
308	:	00000000010001100011111100010100	;
309	:	00000000001100010101101101010111	;
310	:	00000000000111001110000001110101	;
311	:	00000000000111010001010011100011	;
312	:	11111111110011111001000010010111	;
313	:	11111111111111110110000000011000	;
314	:	11111111110110101110111001100100	;
315	:	11111111111000111000100001100110	;
316	:	11111111111111000011000011010100	;
317	:	11111111111001010010101111010100	;
318	:	11111111111111101001011000111110	;
319	:	00000000000000010101111101000101	;
320	:	11111111111111101011100001010010	;
321	:	00000000000001110010100001100010	;
322	:	00000000000111010010111100011010	;
323	:	00000000000000010000101101100011	;
324	:	00000000000010001101000100001111	;
325	:	00000000000000000011001110100100	;
326	:	00000000000101100011100010000110	;
327	:	11111111111010110101000010110001	;
328	:	11111111111111001011001111100110	;
329	:	11111111110111001010110000001001	;
330	:	00000000000100010001100111001110	;
331	:	11111111111011011110000000001110	;
332	:	11111111111100100111101110110011	;
333	:	11111111110001101000110110111001	;
334	:	00000000001101000110110111000101	;
335	:	11111111110110111010010111100100	;
336	:	00000000010000011111001000010010	;
337	:	11111111110010000100101101011110	;
338	:	11111111110000110001001001101111	;
339	:	00000000001010110000001000001100	;
340	:	11111111111111000001111001111010	;
341	:	00000000000101010100110010011000	;
342	:	11111111101111000001101111011011	;
343	:	11111111111110101110100100100101	;
344	:	00000000000011110100000111110010	;
345	:	11111111111011100010111010110010	;
346	:	11111111111011100111110101010111	;
347	:	11111111111110001000001110111011	;
348	:	11111111111010110101000010110001	;
349	:	00000000000011000001010101001100	;
350	:	11111111111110010110011111001011	;
351	:	00000000000001011000011110010011	;
352	:	00000000000110110111000101110101	;
353	:	00000000000001111011001101010010	;
354	:	11111111110100010110100001110011	;
355	:	00000000001011011001000101101000	;
356	:	11111111110101001110001110111101	;
357	:	11111111111111000110001010100010	;
358	:	00000000000100001100101100101001	;
359	:	11111111101101111000000000110101	;
360	:	00000000000111000010100011110101	;
361	:	11111111110000111110010000100110	;
362	:	11111111101011000011110010011111	;
363	:	11111111111111000001100100111100	;
364	:	11111111111110111100000000011011	;
365	:	00000000000101110010010001110100	;
366	:	00000000000111011011001000101101	;
367	:	00000000010011000111111000101000	;
368	:	00000000000010110111100000000011	;
369	:	11111111101110010010001110100011	;
370	:	00000000001000010111110000011011	;
371	:	00000000000101110010010001110100	;
372	:	11111111101110111100110100110110	;
373	:	00000000001011110000000001101000	;
374	:	11111111111110101011111100110100	;
375	:	11111111111111111110100111111011	;
376	:	00000000000100101101011101110011	;
377	:	00000000001000101110101100011100	;
378	:	11111111111001010001000110011101	;
379	:	00000000000110010001011010000111	;
380	:	11111111111000001100010010011100	;
381	:	00000000000100011101000101001110	;
382	:	00000000000110101101010000101100	;
383	:	00000000000001100000001011001001	;
384	:	11111111111110001111111011110000	;
385	:	11111111111100000101010100110011	;
386	:	00000000000100111111011111001110	;
387	:	11111111101011100111110101010111	;
388	:	11111111110101000111101011100010	;
389	:	11111111101111011101100110000000	;
390	:	00000000001011100100100011101000	;
391	:	00000000010011100101011000000100	;
392	:	00000000010000010011101010010010	;
393	:	11111111101010100001011000011111	;
394	:	00000000000101101000011100101011	;
395	:	11111111101110000101000111101100	;
396	:	11111111110001111010111000010101	;
397	:	11111111110110010011000010111111	;
398	:	11111111111010001100000101010101	;
399	:	11111111111000011111111100101111	;
400	:	00000000000100001111111110010111	;
401	:	11111111111100101100101001011000	;
402	:	11111111111000111111000101000010	;
403	:	00000000000001100000100000000111	;
404	:	11111111111101000011100101011001	;
405	:	11111111111100010000110010110011	;
406	:	00000000000011011101001011110001	;
407	:	11111111111101101000000111101101	;
408	:	00000000001000010111110000011011	;
409	:	11111111111001100001011111000010	;
410	:	11111111110111111000101000001010	;
411	:	00000000000010000100011000011111	;
412	:	11111111110100001111111110011000	;
413	:	00000000000011111101111100111011	;
414	:	11111111111100001101100001000101	;
415	:	11111111101111001001111011101101	;
416	:	00000000010011011001111010000011	;
417	:	11111111101110011000110001111111	;
418	:	00000000010011000110001111110001	;
419	:	11111111111010101110011111010110	;
420	:	00000000001100111000000111010111	;
421	:	11111111101101100101111111011001	;
422	:	11111111110110010111111101100011	;
423	:	00000000000000111110100101100011	;
424	:	11111111111000010111110000011100	;
425	:	00000000000010101000110000010101	;
426	:	00000000001001001010100011000001	;
427	:	11111111111100100110000101111101	;
428	:	11111111111000011111111100101111	;
429	:	00000000000101101111000000000110	;
430	:	11111111111000000010011101010011	;
431	:	00000000000100110111010010111100	;
432	:	00000000001010000011111001000010	;
433	:	11111111111010010010101000110001	;
434	:	00000000000010110111100000000011	;
435	:	00000000000000100010100100011111	;
436	:	11111111111000100100110111010011	;
437	:	00000000001010001010011100011101	;
438	:	00000000000001100011011100110110	;
439	:	11111111111000001100010010011100	;
440	:	00000000001100101111111011000101	;
441	:	11111111111111110110010110011001	;
442	:	11111111110110111100000000011011	;
443	:	00000000000100000010110111100000	;
444	:	00000000001111101101111110100100	;
445	:	00000000000010000000111100010010	;
446	:	11111111111000000111010111110111	;
447	:	11111111101100001000100110100001	;
448	:	11111111111111101101001010001001	;
449	:	11111111111000000010011101010011	;
450	:	11111111111001000111010001010100	;
451	:	00000000010010110100001110010101	;
452	:	11111111111101111011100111100001	;
453	:	11111111111110100011011011100011	;
454	:	00000000001001100001011111000001	;
455	:	11111111110101100000010000011001	;
456	:	11111111111110001000011001011010	;
457	:	11111111111011111000001101111100	;
458	:	00000000000000001100000110111001	;
459	:	11111111111010000000100111010101	;
460	:	11111111111010010100010001101000	;
461	:	00000000000011100011101111001101	;
462	:	00000000000001101111011010010100	;
463	:	11111111110101111000110101010000	;
464	:	00000000000111010001010011100011	;
465	:	11111111110110110010001011010001	;
466	:	00000000000001010110111111111100	;
467	:	00000000000110111000101110101100	;
468	:	11111111111110000100010011010001	;
469	:	11111111111000111000100001100110	;
470	:	00000000010101010110011011001111	;
471	:	00000000001011101011000111000100	;
472	:	11111111111111000100000010001110	;
473	:	11111111101010111000010100011111	;
474	:	11111111111100101001010111101010	;
475	:	00000000010011000110001111110001	;
476	:	00000000000011101111001101001101	;
477	:	00000000000011111111100101110010	;
478	:	00000000010001000100110100000001	;
479	:	11111111111100001010001111011000	;
480	:	00000000010000011011110110100101	;
481	:	11111111101100110100110101101011	;
482	:	11111111101101001010001000110100	;
483	:	00000000000001110001110111100110	;
484	:	00000000000001100101111010001001	;
485	:	11111111111100100010110100001111	;
486	:	11111111111000110000010101010100	;
487	:	00000000000000100110001011001011	;
488	:	11111111111110110101010010100000	;
489	:	00000000000000001111010001010001	;
490	:	11111111110100110000101111100001	;
491	:	00000000001101111110100100001111	;
492	:	11111111101111100111011011001001	;
493	:	00000000000000111011101000110100	;
494	:	11111111111111000011101101010000	;
495	:	00000000000001011110110111010000	;
496	:	11111111111100000011101011111100	;
497	:	00000000001011011111101001000011	;
498	:	11111111110111000100001100101101	;
499	:	11111111111111111110110100010011	;
500	:	11111111110000010110111100000001	;
501	:	00000000001001101001101011010100	;
502	:	00000000001110000001110101111101	;
503	:	11111111101110110010111111101101	;
504	:	11111111111010110101000010110001	;
505	:	00000000010101101010000101100001	;
506	:	11111111111001001010100011000010	;
507	:	11111111110110110011110100001000	;
508	:	00000000001000100110100000001001	;
509	:	00000000001000001111100100001001	;
510	:	00000000010001100011111100010100	;
511	:	00000000000100010110100001110010	;
512	:	11111111111101010101100110110100	;
513	:	11111111110011100111000000111011	;
514	:	11111111110111010010111100011011	;
515	:	11111111111000100110100000001010	;
516	:	11111111111001100110011001100111	;
517	:	11111111110100011001110011100001	;
518	:	11111111110100001111111110011000	;
519	:	11111111110110110010001011010001	;
520	:	00000000001101001111000011011000	;
521	:	00000000000111110000011011110110	;
522	:	11111111111000010100011110101111	;
523	:	00000000000101110011111010101011	;
524	:	00000000000110010001011010000111	;
525	:	11111111111101100100001100000011	;
526	:	11111111111000101001110001111000	;
527	:	00000000001000000101101111000000	;
528	:	00000000000000111110010000100101	;
529	:	11111111110100110010011000011000	;
530	:	00000000001010001111010111000010	;
531	:	00000000010000100010011010000000	;
532	:	00000000001101011100001010001111	;
533	:	11111111111111100010001011100110	;
534	:	00000000001101011111011011111101	;
535	:	00000000010100110010011000010111	;
536	:	11111111110110101001111110111111	;
537	:	00000000000110010111111101100010	;
538	:	11111111110100010110100001110011	;
539	:	11111111111000111101011100001011	;
540	:	00000000000001100111000011100010	;
541	:	00000000001000110011100111000000	;
542	:	11111111111100011101111001101010	;
543	:	11111111111010000010010000001100	;
544	:	00000000000010110111100000000011	;
545	:	11111111111111000001111001111010	;
546	:	00000000000110111111010010000111	;
547	:	11111111111001000000101101111001	;
548	:	11111111111100001011111000001110	;
549	:	00000000000010010000111111111001	;
550	:	00000000000101101010000101100001	;
551	:	00000000000010100001110111111011	;
552	:	11111111110110100110101101010001	;
553	:	00000000010011101111001101001101	;
554	:	00000000000001100110100100000101	;
555	:	00000000000001101101100110111110	;
556	:	11111111111111111011111110000100	;
557	:	11111111100111111000101000001010	;
558	:	11111111101111001000010010110110	;
559	:	00000000010001000001100010010011	;
560	:	11111111101101110110010111111110	;
561	:	00000000001100101111111011000101	;
562	:	00000000000010011101000111110110	;
563	:	00000000000110011011001111010000	;
564	:	00000000000111011001011111110110	;
565	:	00000000001011111001110110110010	;
566	:	00000000000001100011100111010101	;
567	:	00000000000000111100100111101110	;
568	:	11111111111100001101100001000101	;
569	:	00000000000100101111000110101001	;
570	:	00000000000010001100001111110011	;
571	:	11111111111010110110101011101000	;
572	:	11111111111101100001001111010100	;
573	:	11111111111101011100001010010000	;
574	:	00000000000100111111011111001110	;
575	:	11111111111010110000001000001101	;
576	:	00000000000001101110110000010111	;
577	:	11111111111100000101010100110011	;
578	:	00000000000011111111100101110010	;
579	:	11111111110111011011001000101110	;
580	:	11111111111110010101110101001111	;
581	:	11111111110101011110100111100010	;
582	:	11111111111110100011000110100101	;
583	:	00000000000011001110011100000011	;
584	:	11111111101111010111000010100100	;
585	:	11111111110101101111000000000111	;
586	:	00000000010101010110011011001111	;
587	:	00000000001011111101001000011111	;
588	:	11111111111101100100101011100000	;
589	:	00000000001101100001000100110100	;
590	:	00000000000001010111110100010111	;
591	:	00000000010000010000011000100100	;
592	:	11111111110000100100000010111000	;
593	:	11111111110101011110100111100010	;
594	:	11111111111100101011000000100001	;
595	:	00000000001100101110010010001110	;
596	:	11111111111100111001110000001111	;
597	:	11111111111001110011100000011110	;
598	:	11111111111000011111111100101111	;
599	:	00000000001001100011000111111000	;
600	:	11111111111000010010110101111000	;
601	:	00000000000101100011100010000110	;
602	:	11111111110110000111100100111110	;
603	:	00000000000111011110011010011010	;
604	:	11111111111010100110010011000011	;
605	:	00000000000000111011011110010101	;
606	:	00000000000000101100001111001001	;
607	:	00000000010000000011010001101101	;
608	:	00000000000011111111100101110010	;
609	:	00000000000010000010101111101000	;
610	:	11111111101101010010010101000111	;
611	:	00000000001010100111111011111001	;
612	:	11111111111111011101111010111110	;
613	:	00000000000000101110110110111011	;
614	:	11111111110100011001110011100001	;
615	:	00000000010101011001101100111101	;
616	:	11111111101011101001011110001110	;
617	:	11111111111010000011111001000011	;
618	:	00000000001000100001100101100101	;
619	:	00000000001000001101111011010010	;
620	:	11111111111101111101111010010100	;
621	:	00000000010010011010000000100111	;
622	:	11111111111101011000111000100010	;
623	:	11111111110110101101010000101101	;
624	:	00000000000010111110000011011110	;
625	:	00000000000100001110010101100000	;
626	:	00000000000001010000111011111101	;
627	:	00000000000001010110101010111101	;
628	:	11111111111100110110011110100001	;
629	:	00000000000011000110001111110001	;
630	:	00000000000000011000011010011000	;
631	:	00000000001010001000110011100111	;
632	:	11111111110011110100000111110011	;
633	:	00000000001000110110111000101110	;
634	:	11111111110100001001011010111100	;
635	:	11111111111000010110000111100101	;
636	:	00000000000010011100001000111011	;
637	:	00000000001000010010110101110111	;
638	:	11111111111100000101010100110011	;
639	:	11111111110100011011011100011000	;
640	:	00000000000111110010000100101101	;
641	:	00000000000000010101001000101010	;
642	:	11111111110011111111100101110011	;
643	:	11111111110010111010110001110010	;
644	:	11111111111011101011000111000101	;
645	:	00000000001011110011010011010110	;
646	:	00000000010010010101000110000010	;
647	:	00000000000101000010110000111100	;
648	:	11111111111010000011111001000011	;
649	:	00000000010010101000110000010101	;
650	:	11111111111001001000111010001011	;
651	:	00000000001010111000010100011110	;
652	:	11111111111110110101011100111111	;
653	:	11111111111111110100010110011110	;
654	:	11111111111111100011110100011101	;
655	:	11111111111100101111111011000110	;
656	:	00000000000101011011010101110011	;
657	:	11111111111010100100101010001101	;
658	:	11111111111001101011010100001100	;
659	:	00000000000001110100110100010110	;
660	:	00000000000001111111111101011000	;
661	:	11111111111101110000111101111100	;
662	:	00000000000110010111111101100010	;
663	:	00000000001100100111101110110010	;
664	:	11111111110011000100100110111011	;
665	:	00000000000010011101100111010011	;
666	:	11111111111000011011000010001010	;
667	:	00000000000010110000111100100111	;
668	:	00000000000010010100000111001000	;
669	:	11111111101101111011010010100011	;
670	:	00000000001011000011110010011110	;
671	:	11111111101110000101000111101100	;
672	:	00000000001110011010011010110101	;
673	:	00000000000110110011110100000111	;
674	:	11111111110111100011010101000000	;
675	:	11111111110000000011010001101110	;
676	:	00000000001000001010101001100100	;
677	:	11111111111011110000000001101001	;
678	:	11111111111000100100110111010011	;
679	:	00000000001011111110110001010110	;
680	:	11111111111100000000011010001110	;
681	:	11111111111101001000011111111101	;
682	:	00000000000010011101011100110100	;
683	:	11111111111101011000111000100010	;
684	:	00000000000100101101011101110011	;
685	:	00000000000000110000101010010001	;
686	:	11111111111100010101101101011000	;
687	:	00000000000001101001100000110101	;
688	:	11111111111110010000000110001111	;
689	:	00000000000001110100010100111000	;
690	:	11111111110100001100101100101010	;
691	:	11111111110011101101100100010111	;
692	:	00000000000011111101111100111011	;
693	:	11111111111000011110010011111000	;
694	:	00000000010001111100100001001011	;
695	:	11111111111011111000001101111100	;
696	:	11111111110001000001100010010100	;
697	:	11111111101110101010110011011010	;
698	:	11111111101110000110110000100011	;
699	:	11111111111100001011111000001110	;
700	:	00000000001111011101100101111111	;
701	:	11111111101110100010100111001000	;
702	:	11111111110001000011001011001011	;
703	:	00000000010001010000010010000001	;
704	:	11111111111100101110010010001111	;
705	:	00000000001110011010011010110101	;
706	:	11111111110111100110100110101110	;
707	:	00000000000001001111111101000011	;
708	:	00000000010010101100000010000011	;
709	:	11111111110011110111011001100000	;
710	:	00000000000101111010011110000110	;
711	:	00000000000001011011000110000101	;
712	:	00000000000000100111011111000100	;
713	:	11111111111000001111100100001010	;
714	:	00000000010001101010011111101111	;
715	:	11111111110001000001100010010100	;
716	:	11111111101111111110010111001010	;
717	:	00000000001011100110001100011111	;
718	:	00000000000011001110011100000011	;
719	:	11111111111110101110100100100101	;
720	:	11111111101011011111101001000100	;
721	:	00000000010000001011011110000000	;
722	:	00000000000111001110000001110101	;
723	:	00000000001101100111101000001111	;
724	:	00000000000101010100110010011000	;
725	:	11111111101101010101100110110100	;
726	:	00000000000100111010100100101010	;
727	:	11111111110101001001010100011001	;
728	:	11111111111011001010010101111011	;
729	:	00000000010010101010011001001100	;
730	:	00000000010100101101011101110011	;
731	:	11111111111000001101111011010011	;
732	:	00000000000110101001111110111110	;
733	:	11111111101011011010101110100000	;
734	:	00000000010011111001000010010110	;
735	:	11111111110100111010100100101011	;
736	:	00000000001111010010000111111111	;
737	:	00000000000001100000000000101001	;
738	:	11111111111110100000101001010011	;
739	:	11111111111010101011001101101000	;
740	:	11111111101011001010010101111011	;
741	:	00000000001110011100000011101011	;
742	:	11111111101011001010010101111011	;
743	:	00000000001101011111011011111101	;
744	:	00000000000001010101010111000101	;
745	:	00000000001000000111010111110110	;
746	:	11111111110001110101111101110000	;
747	:	00000000000000000100100010011101	;
748	:	00000000000000001100011101111101	;
749	:	00000000001001111110111110011101	;
750	:	00000000000110011011001111010000	;
751	:	00000000001001000010010110101110	;
752	:	11111111111010101001100100110001	;
753	:	11111111101111100101110010010010	;
754	:	11111111111000110011100111000001	;
755	:	00000000000000010011000000010110	;
756	:	00000000010011001110011100000011	;
757	:	00000000010011001001100001011111	;
758	:	11111111111111010010100111011101	;
759	:	11111111101111010000011111001001	;
760	:	00000000010010110000111100100111	;
761	:	00000000000111001100011000111111	;
762	:	11111111101101010010010101000111	;
763	:	11111111110001010011100011110000	;
764	:	11111111110101111111011000101100	;
765	:	00000000001110101100011100010000	;
766	:	00000000001001010111101001111000	;
767	:	00000000001101101001010001000110	;
768	:	11111111101100101011000000100001	;
769	:	00000000001101100101111111011000	;
770	:	11111111111110111101111110010000	;
771	:	11111111110000100101101011101111	;
772	:	11111111101010101011001101101000	;
773	:	11111111110001101100001000100111	;
774	:	00000000010011111101111100111011	;
775	:	11111111110011000001010101001101	;
776	:	11111111111010110110101011101000	;
777	:	11111111110101101010000101100010	;
778	:	00000000000010010011001000001101	;
779	:	11111111101011011001000101101001	;
780	:	00000000001001100011000111111000	;
781	:	11111111111111001010110000001001	;
782	:	11111111110001011011110000000010	;
783	:	11111111101010110011011001111011	;

END;
