-- Copyright (C) 2020  Intel Corporation. All rights reserved.
-- Your use of Intel Corporation's design tools, logic functions 
-- and other software and tools, and any partner logic 
-- functions, and any output files from any of the foregoing 
-- (including device programming or simulation files), and any 
-- associated documentation or information are expressly subject 
-- to the terms and conditions of the Intel Program License 
-- Subscription Agreement, the Intel Quartus Prime License Agreement,
-- the Intel FPGA IP License Agreement, or other applicable license
-- agreement, including, without limitation, that your use is for
-- the sole purpose of programming logic devices manufactured by
-- Intel and sold by Intel or its authorized distributors.  Please
-- refer to the applicable agreement for further details, at
-- https://fpgasoftware.intel.com/eula.

-- Quartus Prime generated Memory Initialization File (.mif)

WIDTH=32;
DEPTH=784;

ADDRESS_RADIX=UNS;
DATA_RADIX=BIN;

CONTENT BEGIN

0	:	11111111111001010100011000001011	;
1	:	11111111111110001010101100001101	;
2	:	00000000010000011010001101101110	;
3	:	11111111111001001100001011111001	;
4	:	11111111110100000100100000010111	;
5	:	00000000001110101010110011011001	;
6	:	11111111110101100001111001010000	;
7	:	00000000001010010101111010011110	;
8	:	00000000000010100010101100010111	;
9	:	00000000000101011110100111100001	;
10	:	11111111111111100100010011111011	;
11	:	11111111110001011011110000000010	;
12	:	00000000010100010001100111001110	;
13	:	00000000001010111001111101010101	;
14	:	11111111110101001100100110000110	;
15	:	11111111111101101001111011000011	;
16	:	11111111111011001000101101000100	;
17	:	00000000001011100111110101010110	;
18	:	11111111110001010000010010000010	;
19	:	11111111111101111010010011101000	;
20	:	00000000000010000101010111011010	;
21	:	00000000010100110000101111100000	;
22	:	11111111111011101100101111111100	;
23	:	00000000000100101010001100000101	;
24	:	00000000001001010111101001111000	;
25	:	11111111101110011101101100100011	;
26	:	11111111111101001000011111111101	;
27	:	00000000001011100111110101010110	;
28	:	00000000010100011110101110000101	;
29	:	11111111111011000011110010011111	;
30	:	00000000001001001100001011111000	;
31	:	11111111110001110111100110100111	;
32	:	00000000001001010001000110011100	;
33	:	11111111110001111100100001001100	;
34	:	00000000001010110101000010110000	;
35	:	11111111111010011001001100001100	;
36	:	00000000010000111010111110110111	;
37	:	11111111110000111010111110111000	;
38	:	11111111110011100101011000000101	;
39	:	11111111101100001010001111011000	;
40	:	11111111110101010100110010011001	;
41	:	00000000001101111110100100001111	;
42	:	11111111111011010111011100110010	;
43	:	00000000010010010000001011011110	;
44	:	00000000001101000001111100100001	;
45	:	00000000000110111100000000011010	;
46	:	00000000010010101010011001001100	;
47	:	00000000001111110001010000010010	;
48	:	11111111111100011101111001101010	;
49	:	11111111110001101000110110111001	;
50	:	00000000001011011100010111010110	;
51	:	11111111111100111001110000001111	;
52	:	11111111110100100101010001100001	;
53	:	11111111101011011100010111010111	;
54	:	11111111110111101011100001010010	;
55	:	11111111101010000011111001000011	;
56	:	00000000010000110001001001101110	;
57	:	11111111110000111111111001011101	;
58	:	11111111111100000000011010001110	;
59	:	00000000001110011100000011101011	;
60	:	00000000000010110101110111001100	;
61	:	00000000001100010111010110001110	;
62	:	11111111111100001111001001111100	;
63	:	00000000000100111101110110010111	;
64	:	11111111110111110101010110011100	;
65	:	11111111110100010100111000111100	;
66	:	00000000001000011001011001010010	;
67	:	00000000001000011001011001010010	;
68	:	11111111101111001000010010110110	;
69	:	00000000010101000111101011100001	;
70	:	11111111110000001011011110000001	;
71	:	00000000001110000011011110110100	;
72	:	11111111111110010011010111111101	;
73	:	00000000001000101110101100011100	;
74	:	11111111111001100011000111111001	;
75	:	11111111110101001111110111110100	;
76	:	00000000010011100011101111001101	;
77	:	00000000001100010010011011101001	;
78	:	00000000001011110011010011010110	;
79	:	00000000001011000111000100001100	;
80	:	11111111101100011111100010100001	;
81	:	00000000010011110101110000101000	;
82	:	00000000001011010111011100110001	;
83	:	11111111111010001100000101010101	;
84	:	11111111110000101111100000111000	;
85	:	11111111101011110001101010100000	;
86	:	11111111110001001000000101110000	;
87	:	11111111110001010000010010000010	;
88	:	11111111101111100100001001011011	;
89	:	00000000000101000010110000111100	;
90	:	11111111111010011110000110110001	;
91	:	00000000001101101110001011101011	;
92	:	00000000001010100110010011000010	;
93	:	00000000000001100010111101011001	;
94	:	11111111101001000011111111100110	;
95	:	00000000001001101001101011010100	;
96	:	00000000001010000000100111010100	;
97	:	11111111111100110011001100110100	;
98	:	00000000010001100011111100010100	;
99	:	11111111110001010110110101011101	;
100	:	11111111101011000010001001101001	;
101	:	11111111101111011101100110000000	;
102	:	00000000001010001111010111000010	;
103	:	11111111111011000010001001101001	;
104	:	11111111101001111101010101100111	;
105	:	11111111111111011101100110000000	;
106	:	11111111111110001011110101100111	;
107	:	11111111110100001110010101100001	;
108	:	11111111110110011110100000111111	;
109	:	00000000000101011100111110101010	;
110	:	11111111111111110011111100010000	;
111	:	11111111110100001111111110011000	;
112	:	11111111101111110010111001001001	;
113	:	00000000010011000001010101001100	;
114	:	11111111101100010111010110001111	;
115	:	00000000000001010001111010111000	;
116	:	11111111110111001110000001110110	;
117	:	00000000010100001111111110010111	;
118	:	00000000000111001100011000111111	;
119	:	11111111110011000100100110111011	;
120	:	11111111110010111001001000111011	;
121	:	11111111111010010100010001101000	;
122	:	00000000000000100011101101111001	;
123	:	11111111101011000010001001101001	;
124	:	11111111111111001010011011001011	;
125	:	00000000000110111100000000011010	;
126	:	00000000000010110100001110010101	;
127	:	00000000001100010000110010110010	;
128	:	00000000001011100111110101010110	;
129	:	11111111110110001100011111100011	;
130	:	00000000000001000001101100110010	;
131	:	00000000001001010110000001000001	;
132	:	11111111111011000101011011010110	;
133	:	11111111111100000101010100110011	;
134	:	11111111110110010110010100101100	;
135	:	11111111101110010111001001001000	;
136	:	00000000000000001100001110001111	;
137	:	00000000000100101010001100000101	;
138	:	11111111111101111110100100010000	;
139	:	11111111101010001010011100011110	;
140	:	11111111111100001101100001000101	;
141	:	11111111101110101111101101111111	;
142	:	00000000010001100101100101001010	;
143	:	11111111101110101100011100010001	;
144	:	00000000010010111100011010100111	;
145	:	00000000001101000101001110001110	;
146	:	00000000000110001100011111100010	;
147	:	00000000001100110110011110100000	;
148	:	11111111111110011000100111100000	;
149	:	00000000001100011000111111000101	;
150	:	00000000000110101011100111110101	;
151	:	11111111111011001101100111101001	;
152	:	11111111111101001101011010100010	;
153	:	00000000000001001010001110000011	;
154	:	11111111101100110110011110100001	;
155	:	11111111111100100110000101111101	;
156	:	11111111101101010010010101000111	;
157	:	11111111110110000001000001100011	;
158	:	11111111111011111101001000100000	;
159	:	11111111110011111010101011001110	;
160	:	11111111110010101010011001001101	;
161	:	11111111111011100010111010110010	;
162	:	11111111101010110000001000001101	;
163	:	00000000001110001010000010010000	;
164	:	11111111101010101001100100110001	;
165	:	11111111110000111100100111101111	;
166	:	00000000010110000101111100000110	;
167	:	00000000000111000111011110011010	;
168	:	00000000010100011101000101001110	;
169	:	11111111110010001100111001110001	;
170	:	00000000010100000010110111100000	;
171	:	11111111110111111111001011100101	;
172	:	11111111111000010100011110101111	;
173	:	00000000001110110010111111101100	;
174	:	11111111111110010010011001000010	;
175	:	11111111111010010101111010011111	;
176	:	11111111111010111001111101010110	;
177	:	00000000000011010011010110101000	;
178	:	11111111101100011101111001101010	;
179	:	00000000001010000111001010110000	;
180	:	00000000001000111000100001100101	;
181	:	11111111111111101001001110011111	;
182	:	11111111111111100001010111001011	;
183	:	11111111111111100110110001001101	;
184	:	00000000000011111100010100000100	;
185	:	00000000000101010110011011001111	;
186	:	11111111111101011100001010010000	;
187	:	11111111111011101100101111111100	;
188	:	00000000000111011100110001100011	;
189	:	11111111111001011001010010110000	;
190	:	00000000001011100001010001111010	;
191	:	00000000001011011001000101101000	;
192	:	11111111110111000101110101100100	;
193	:	11111111111001010100011000001011	;
194	:	11111111110110010111111101100011	;
195	:	00000000000001001001001111001000	;
196	:	00000000001001001101110100101111	;
197	:	00000000001001000010010110101110	;
198	:	00000000001100101001010111101001	;
199	:	00000000000001000111000110110100	;
200	:	00000000001101000011100101011000	;
201	:	00000000000010010101101111111111	;
202	:	00000000000111011001011111110110	;
203	:	11111111110010110000111100101000	;
204	:	00000000010101101111000000000110	;
205	:	00000000000001010011101110001110	;
206	:	00000000001110000101000111101011	;
207	:	11111111111000010100011110101111	;
208	:	11111111111111010001001001000101	;
209	:	00000000000011100000011101011111	;
210	:	11111111111011100001010001111011	;
211	:	11111111110110011001100110011010	;
212	:	00000000001101100101111111011000	;
213	:	11111111111011100111110101010111	;
214	:	11111111110111101001111000011100	;
215	:	00000000001100010010011011101001	;
216	:	00000000000001100010111101011001	;
217	:	11111111111111101011001100010100	;
218	:	00000000001011010101110011111010	;
219	:	11111111101000110001111110001011	;
220	:	11111111101101010010010101000111	;
221	:	00000000000111100011010100111111	;
222	:	11111111101001110001110111100111	;
223	:	00000000010101110111001100011000	;
224	:	00000000010000111010111110110111	;
225	:	11111111110001011101011000111001	;
226	:	00000000000010010010001001010011	;
227	:	11111111110010101000110000010110	;
228	:	00000000001101100111101000001111	;
229	:	00000000010101110111001100011000	;
230	:	11111111110100000100100000010111	;
231	:	00000000000111100001101100001000	;
232	:	11111111110110001110001000011010	;
233	:	00000000000101001111110111110011	;
234	:	11111111111011011010101110100000	;
235	:	00000000000010100111000111011110	;
236	:	00000000000000001110110000110001	;
237	:	00000000000111100110100110101101	;
238	:	00000000000011000001010101001100	;
239	:	11111111111101111010011110000111	;
240	:	11111111111001111000011011000011	;
241	:	00000000000000101011100101001101	;
242	:	00000000001100011000111111000101	;
243	:	00000000000000110111100010101011	;
244	:	11111111110011101000101001110010	;
245	:	11111111111011010101110011111011	;
246	:	00000000001001001010100011000001	;
247	:	00000000001010011001001100001011	;
248	:	00000000001000011100101011000000	;
249	:	00000000000011011101001011110001	;
250	:	11111111101111010101011001101101	;
251	:	00000000000011010001101101110001	;
252	:	11111111101011010100001011000100	;
253	:	00000000010101000001001000000101	;
254	:	00000000001000100001100101100101	;
255	:	00000000010110101001111110111110	;
256	:	11111111110111000010100011110110	;
257	:	11111111110011010001101101110010	;
258	:	11111111111111110101101110100011	;
259	:	00000000001100101111111011000101	;
260	:	11111111110111011001011111110111	;
261	:	00000000001100000110111101101001	;
262	:	11111111111101011111110000111100	;
263	:	00000000001000010110000111100100	;
264	:	00000000000100110111010010111100	;
265	:	11111111111000110001111110001011	;
266	:	00000000000100010001100111001110	;
267	:	00000000000111110011101101100100	;
268	:	00000000001000010100011110101110	;
269	:	00000000000100110111010010111100	;
270	:	11111111111110011111101010011000	;
271	:	00000000000000101100001111001001	;
272	:	00000000000010001000111110000110	;
273	:	11111111111111001101101100111000	;
274	:	11111111111011110000000001101001	;
275	:	11111111101000011011000010001010	;
276	:	00000000010001101101110001011101	;
277	:	00000000000100000100100000010110	;
278	:	11111111110001011101011000111001	;
279	:	11111111110001110010101100000011	;
280	:	11111111111100101100101001011000	;
281	:	11111111101110010101100000010001	;
282	:	11111111111001101001101011010101	;
283	:	00000000000001100001001010000011	;
284	:	11111111110000010110111100000001	;
285	:	00000000001100010010011011101001	;
286	:	00000000001010001101101110001011	;
287	:	11111111111110011100001110001100	;
288	:	11111111111111111000000101100011	;
289	:	11111111111101110010100110110011	;
290	:	11111111111100101011000000100001	;
291	:	11111111110101100001111001010000	;
292	:	00000000000111110101010110011011	;
293	:	00000000000111001100011000111111	;
294	:	00000000001001000010010110101110	;
295	:	11111111111110111000100100001110	;
296	:	00000000000010001101011001001101	;
297	:	11111111111011001010010101111011	;
298	:	00000000000100101000100011001110	;
299	:	00000000001011111011011111101001	;
300	:	00000000000100110000101111100000	;
301	:	00000000000111011100110001100011	;
302	:	00000000000100100011101000101001	;
303	:	00000000001101000011100101011000	;
304	:	11111111101000111111000101000010	;
305	:	00000000001000000000110100011011	;
306	:	11111111111100111011011001000110	;
307	:	11111111101100100010110100001111	;
308	:	00000000010101010001100000101010	;
309	:	11111111101110000011011110110101	;
310	:	00000000000000110011111011111111	;
311	:	00000000001001010110000001000001	;
312	:	00000000010111011011001000101101	;
313	:	11111111110110111010010111100100	;
314	:	00000000000100000100100000010110	;
315	:	11111111111011101110011000110010	;
316	:	11111111111110010100010110110111	;
317	:	11111111111100100010110100001111	;
318	:	00000000000011110010011110111011	;
319	:	00000000000100011011011100010111	;
320	:	11111111111010110101000010110001	;
321	:	11111111110010100010001100111010	;
322	:	00000000001001101001101011010100	;
323	:	11111111111100111001110000001111	;
324	:	00000000001011000101011011010101	;
325	:	00000000001110011101101100100010	;
326	:	11111111111000111011110011010100	;
327	:	11111111110001010000010010000010	;
328	:	00000000001011111110110001010110	;
329	:	00000000000000100100010111110101	;
330	:	00000000000011100101011000000100	;
331	:	11111111111010011111101111101000	;
332	:	00000000000010110010100101011110	;
333	:	11111111110001010110110101011101	;
334	:	00000000000000011100010110000010	;
335	:	00000000010101101101010111001111	;
336	:	00000000000001100110011001100110	;
337	:	00000000010110011011001111010000	;
338	:	11111111110100100011101000101010	;
339	:	11111111110000010101010011001010	;
340	:	00000000010010011010000000100111	;
341	:	11111111110000010011101010010011	;
342	:	11111111111111101010101100110111	;
343	:	11111111111000110001111110001011	;
344	:	00000000001011000010001001101000	;
345	:	00000000001101011100001010001111	;
346	:	11111111110111011100110001100100	;
347	:	00000000000001100101011010101011	;
348	:	11111111111101101000100111001011	;
349	:	11111111111000101101000011100110	;
350	:	11111111111010101011001101101000	;
351	:	00000000001011100010111010110001	;
352	:	00000000000010100001100010111101	;
353	:	11111111111111100100011110011010	;
354	:	00000000001110010010001110100010	;
355	:	00000000001001101110100101111000	;
356	:	11111111101010101011001101101000	;
357	:	00000000000010000000110001110011	;
358	:	00000000001000000111010111110110	;
359	:	00000000000000001010011001110110	;
360	:	11111111101101000101001110001111	;
361	:	11111111111100001011111000001110	;
362	:	00000000010101100000010000011000	;
363	:	00000000010001010001111010111000	;
364	:	00000000000111110000011011110110	;
365	:	11111111111000011100101011000001	;
366	:	00000000000101100110110011110100	;
367	:	00000000001100111011011001000101	;
368	:	11111111111011001111010000100000	;
369	:	00000000001100100001001011010111	;
370	:	00000000001100000010000011000100	;
371	:	11111111111011101001011110001110	;
372	:	11111111110100100101010001100001	;
373	:	11111111110110110111000101110110	;
374	:	11111111110111100110100110101110	;
375	:	00000000001010000011111001000010	;
376	:	11111111111101101011100011111010	;
377	:	11111111101001101001101011010101	;
378	:	11111111111011001010010101111011	;
379	:	11111111110010010001110100010101	;
380	:	11111111110001110101111101110000	;
381	:	00000000000000010000101101100011	;
382	:	11111111110101110010010001110101	;
383	:	11111111111111001000111100110011	;
384	:	00000000000011010000000100111010	;
385	:	00000000000010100010101100010111	;
386	:	11111111110100001111111110011000	;
387	:	00000000000100100110111010010111	;
388	:	11111111111000110001111110001011	;
389	:	00000000000010101111010011110000	;
390	:	11111111110100111100001101100010	;
391	:	00000000010000010011101010010010	;
392	:	00000000001011011110000000001101	;
393	:	11111111111010110001110001000100	;
394	:	00000000000001100110101110100100	;
395	:	11111111101010011111101111101000	;
396	:	00000000001100100010110100001110	;
397	:	00000000000001001101101010010000	;
398	:	11111111111001010100011000001011	;
399	:	11111111111110101110001111100111	;
400	:	00000000000101100101001010111101	;
401	:	11111111111101111011111100011111	;
402	:	11111111111101101000110001101010	;
403	:	11111111110000101000111101011101	;
404	:	11111111111011001000101101000100	;
405	:	11111111110101001010111101010000	;
406	:	00000000001001100100110000101111	;
407	:	00000000001001100110011001100110	;
408	:	00000000001000111011110011010011	;
409	:	00000000000000110011111011111111	;
410	:	00000000000010110100001110010101	;
411	:	00000000001000110110111000101110	;
412	:	00000000000101000010110000111100	;
413	:	11111111110111000010100011110110	;
414	:	11111111111100101111111011000110	;
415	:	11111111111001111000011011000011	;
416	:	00000000010010100011110101110000	;
417	:	00000000001010110001110001000011	;
418	:	00000000010000000110100011011011	;
419	:	11111111111011001010010101111011	;
420	:	11111111110000101010100110010100	;
421	:	11111111111111001100100011011111	;
422	:	00000000001101001111000011011000	;
423	:	00000000010001011011110000000001	;
424	:	11111111111100001111001001111100	;
425	:	11111111101010010100010001101000	;
426	:	11111111110010001100111001110001	;
427	:	00000000001011001111010000011111	;
428	:	11111111110100111010100100101011	;
429	:	11111111111011100010111010110010	;
430	:	00000000000110111000101110101100	;
431	:	11111111111001110001110111100111	;
432	:	00000000000001111010101101110101	;
433	:	11111111110100000001001110101010	;
434	:	11111111110111001111101010101101	;
435	:	11111111110110101101010000101101	;
436	:	00000000000011000001010101001100	;
437	:	00000000000011011101001011110001	;
438	:	11111111111001011111110110001011	;
439	:	00000000001100001011111000001101	;
440	:	00000000000000001001100100010111	;
441	:	00000000001011010100001011000011	;
442	:	11111111111010110101000010110001	;
443	:	11111111110001000100110100000010	;
444	:	00000000001000000111010111110110	;
445	:	11111111111000010111110000011100	;
446	:	00000000000000110111110111101001	;
447	:	11111111111001110001110111100111	;
448	:	00000000001011110110100101000100	;
449	:	11111111110110110111000101110110	;
450	:	11111111101101100001000100110101	;
451	:	11111111111010100011000001010110	;
452	:	00000000001100011000111111000101	;
453	:	00000000000110100110101101010000	;
454	:	00000000000000111101011100001010	;
455	:	11111111110001011011110000000010	;
456	:	00000000000011001011001010010101	;
457	:	11111111111011000010001001101001	;
458	:	11111111111011001101100111101001	;
459	:	11111111111001010100011000001011	;
460	:	11111111111110111011010110011110	;
461	:	00000000001000100011001110011100	;
462	:	00000000000010000100001110000000	;
463	:	11111111110110100001110010101101	;
464	:	11111111111100111011011001000110	;
465	:	11111111111110010111101000100101	;
466	:	00000000001011111001110110110010	;
467	:	11111111101100101011000000100001	;
468	:	00000000010010110100001110010101	;
469	:	00000000001001111101010101100110	;
470	:	00000000000111100110100110101101	;
471	:	11111111111001011100100100011110	;
472	:	00000000010010101101101010111001	;
473	:	11111111101101011111011011111110	;
474	:	00000000010000110010110010100101	;
475	:	11111111111001110000001110110000	;
476	:	11111111111010100001011000011111	;
477	:	11111111110011001011001010010110	;
478	:	00000000010101111111011000101011	;
479	:	00000000001110110111111010010000	;
480	:	00000000001000011011000010001001	;
481	:	00000000001010000010010000001011	;
482	:	00000000000010101010011001001100	;
483	:	00000000001101110011000110001111	;
484	:	00000000000000100001010000100110	;
485	:	00000000000000001011000110111011	;
486	:	11111111110011101111001101001110	;
487	:	00000000000000011101010100111100	;
488	:	11111111111001011001010010110000	;
489	:	11111111110100011011011100011000	;
490	:	11111111111111010101100100001101	;
491	:	00000000010010000001011011110000	;
492	:	00000000000001010010001111110110	;
493	:	00000000000100101000100011001110	;
494	:	00000000000010010111101101110100	;
495	:	00000000001100011101111001101001	;
496	:	11111111101110011000110001111111	;
497	:	11111111111110011011101110101110	;
498	:	11111111101100001101100001000101	;
499	:	00000000001000010010110101110111	;
500	:	00000000001010000101100001111001	;
501	:	11111111101101110001011101011001	;
502	:	11111111110100011011011100011000	;
503	:	00000000001110011100000011101011	;
504	:	00000000010001100101100101001010	;
505	:	00000000000010100011000001010101	;
506	:	11111111110110011001100110011010	;
507	:	11111111111100111011011001000110	;
508	:	11111111110110000010101010011010	;
509	:	11111111101100111110101010110100	;
510	:	00000000000101100110110011110100	;
511	:	11111111110100111000111011110100	;
512	:	11111111110010110100001110010110	;
513	:	11111111110110011100111000001000	;
514	:	00000000000110110010001011010000	;
515	:	11111111110110001110001000011010	;
516	:	00000000001101101100100010110100	;
517	:	00000000001001101110100101111000	;
518	:	11111111110101001010111101010000	;
519	:	11111111110001110010101100000011	;
520	:	00000000000001001100010110010111	;
521	:	11111111101110011111010101011010	;
522	:	11111111111111101010010111111001	;
523	:	00000000001001011100100100011101	;
524	:	11111111101100111101000001111101	;
525	:	00000000001010101011001101100111	;
526	:	00000000000110011100111000000111	;
527	:	00000000000000111110000110000110	;
528	:	11111111110000100010011010000001	;
529	:	11111111101111010011110000110111	;
530	:	00000000010011000110001111110001	;
531	:	00000000001101100101111111011000	;
532	:	11111111111011111000001101111100	;
533	:	11111111101111011010010100010010	;
534	:	00000000001111000011011000010001	;
535	:	11111111111111111100101010000110	;
536	:	11111111111010111101001111000100	;
537	:	00000000001001111101010101100110	;
538	:	11111111101010100110010011000011	;
539	:	00000000001001011001010010101111	;
540	:	11111111110110111000101110101101	;
541	:	11111111111011001011111110110010	;
542	:	11111111111001000101101000011101	;
543	:	00000000000111100001101100001000	;
544	:	11111111111101010011111101111101	;
545	:	11111111111101111011111100011111	;
546	:	00000000001101111100111011011001	;
547	:	11111111111000110101001111111000	;
548	:	00000000001011101100101111111011	;
549	:	00000000000011001110011100000011	;
550	:	11111111101111001001111011101101	;
551	:	11111111110010110111100000000100	;
552	:	00000000010001010000010010000001	;
553	:	11111111110101000110000010101011	;
554	:	00000000000110001001001101110100	;
555	:	11111111101000011011000010001010	;
556	:	11111111111010101011001101101000	;
557	:	11111111111010011111101111101000	;
558	:	11111111110100010110100001110011	;
559	:	00000000000110011001100110011001	;
560	:	11111111111101110010011100010100	;
561	:	00000000000101011001101100111101	;
562	:	00000000010011101011111011011111	;
563	:	00000000000101011100111110101010	;
564	:	00000000001010011010110101000010	;
565	:	00000000001101111000000000110100	;
566	:	11111111101001001101110100110000	;
567	:	11111111101010100011000001010110	;
568	:	11111111110101101000011100101100	;
569	:	00000000001010011010110101000010	;
570	:	00000000000101110000101000111101	;
571	:	11111111110000001110101111101110	;
572	:	00000000000000001011001100001011	;
573	:	11111111110100100000010110111101	;
574	:	11111111111001000011111111100110	;
575	:	11111111110101001110001110111101	;
576	:	11111111111111101100101010101100	;
577	:	11111111110110101110111001100100	;
578	:	00000000001000001101111011010010	;
579	:	11111111111000011011000010001010	;
580	:	11111111101011101100101111111100	;
581	:	11111111111011110100111100001110	;
582	:	11111111110101100101001010111110	;
583	:	00000000010001000100110100000001	;
584	:	00000000000100000111110010000100	;
585	:	11111111101010111011100110001101	;
586	:	00000000000010001010111011111011	;
587	:	11111111101101101010111001111110	;
588	:	00000000010100101111000110101001	;
589	:	11111111111000110011100111000001	;
590	:	00000000001001001100001011111000	;
591	:	11111111110100110111010010111101	;
592	:	11111111111111100001000010001101	;
593	:	11111111111000011110010011111000	;
594	:	11111111101011010000111001010111	;
595	:	00000000000011100000011101011111	;
596	:	11111111111101010011111101111101	;
597	:	11111111110011011000010001001110	;
598	:	11111111110111011100110001100100	;
599	:	00000000000111101000001111100100	;
600	:	00000000000111000010100011110101	;
601	:	00000000001101001101011010100001	;
602	:	00000000000111110101010110011011	;
603	:	11111111110110110011110100001000	;
604	:	11111111101101110110010111111110	;
605	:	00000000000100110010011000010111	;
606	:	00000000000110100101000100011001	;
607	:	11111111110001000100110100000010	;
608	:	11111111111101101111001010100110	;
609	:	00000000000100110111010010111100	;
610	:	11111111101101110001011101011001	;
611	:	11111111110000010000011000100101	;
612	:	00000000000101100110110011110100	;
613	:	11111111110111010001010011100100	;
614	:	11111111101010110110101011101000	;
615	:	11111111110000000011010001101110	;
616	:	00000000001011110000000001101000	;
617	:	00000000001101010010010101000110	;
618	:	00000000001010011010110101000010	;
619	:	00000000001000011111111100101110	;
620	:	00000000001100011000111111000101	;
621	:	00000000001010100001011000011110	;
622	:	00000000001100000000011010001101	;
623	:	11111111110000010110111100000001	;
624	:	11111111110100110100000001001111	;
625	:	00000000000001111000110000000000	;
626	:	00000000000101111111011000101011	;
627	:	11111111111010000010010000001100	;
628	:	11111111110011010110101000010111	;
629	:	11111111110010010001110100010101	;
630	:	00000000000001111110011111000000	;
631	:	11111111111111100111000110001011	;
632	:	00000000001000000000110100011011	;
633	:	11111111101110111011001011111111	;
634	:	11111111111100111101000001111101	;
635	:	11111111111001101100111101000010	;
636	:	11111111101010000111001010110001	;
637	:	11111111110011111111100101110011	;
638	:	11111111110111101000001111100101	;
639	:	00000000001011010010100010001100	;
640	:	11111111111110100100101111011100	;
641	:	00000000000111000100001100101100	;
642	:	11111111111101001011110001101011	;
643	:	11111111101101100100010110100010	;
644	:	00000000001011110000000001101000	;
645	:	00000000000000000000101000010000	;
646	:	00000000010000000001101000110110	;
647	:	11111111110000101010100110010100	;
648	:	00000000000111100011010100111111	;
649	:	11111111110011011110110100101001	;
650	:	00000000000010001101101110001011	;
651	:	00000000010010110101110111001100	;
652	:	00000000000001001100000001011001	;
653	:	00000000000011001110011100000011	;
654	:	11111111110100001111111110011000	;
655	:	11111111111111101100001011001111	;
656	:	11111111111110100000011110110100	;
657	:	11111111111110111111011100101000	;
658	:	11111111111101001010001000110100	;
659	:	00000000001101000011100101011000	;
660	:	11111111111011000010001001101001	;
661	:	11111111101110101010110011011010	;
662	:	00000000001001110001110111100110	;
663	:	11111111110100111000111011110100	;
664	:	00000000000010000010011010101010	;
665	:	00000000000111010010111100011010	;
666	:	11111111111001000111010001010100	;
667	:	11111111110101011100111110101011	;
668	:	00000000000110100110101101010000	;
669	:	11111111111101001101011010100010	;
670	:	11111111111000011100101011000001	;
671	:	11111111111101000101001110001111	;
672	:	00000000010001101010011111101111	;
673	:	11111111101101011111011011111110	;
674	:	00000000001110010111001001000111	;
675	:	11111111111110010000111010101010	;
676	:	11111111110101001111110111110100	;
677	:	00000000000111111000101000001001	;
678	:	00000000001100100100011101000101	;
679	:	11111111110110110101011100111111	;
680	:	00000000000000000000110111010000	;
681	:	11111111110111000000111010111111	;
682	:	00000000000101100011100010000110	;
683	:	00000000000101011110100111100001	;
684	:	00000000000100101101011101110011	;
685	:	11111111111110011011101110101110	;
686	:	00000000000100101010001100000101	;
687	:	11111111110000011010001101101111	;
688	:	00000000000110000101111100000110	;
689	:	00000000010010111111101100010101	;
690	:	11111111100111110000011011110111	;
691	:	11111111111101000101001110001111	;
692	:	00000000001000010100011110101110	;
693	:	11111111111110111011010110011110	;
694	:	00000000001100100111101110110010	;
695	:	11111111101110111001100011001000	;
696	:	11111111110010011000010111110001	;
697	:	11111111111010100100101010001101	;
698	:	11111111101111111011000101011100	;
699	:	11111111110000011101011111011100	;
700	:	11111111111001100011000111111001	;
701	:	00000000001100011101111001101001	;
702	:	00000000001000111010001010011100	;
703	:	00000000000001010111011111011001	;
704	:	11111111101110111001100011001000	;
705	:	11111111111011100100100011101001	;
706	:	00000000001110100010100111000111	;
707	:	11111111111100000101010100110011	;
708	:	00000000000010010101010000100001	;
709	:	00000000000000010010000001011011	;
710	:	00000000000000100101100001001111	;
711	:	11111111110000110001001001101111	;
712	:	00000000001111000011011000010001	;
713	:	11111111110111110011101101100101	;
714	:	00000000000110101011100111110101	;
715	:	00000000001001100110011001100110	;
716	:	11111111111111000000000110100100	;
717	:	11111111111010100011000001010110	;
718	:	00000000001010101001100100110000	;
719	:	00000000001100000000011010001101	;
720	:	00000000000101101010000101100001	;
721	:	00000000001001000101101000011100	;
722	:	11111111101010011100011101111010	;
723	:	11111111101111110100100010000000	;
724	:	11111111111100101100101001011000	;
725	:	00000000010010101010011001001100	;
726	:	11111111111111001111100000001110	;
727	:	11111111111011101011000111000101	;
728	:	11111111101011100100100011101001	;
729	:	11111111111100101110010010001111	;
730	:	00000000001111010111000010100011	;
731	:	00000000001110100111100001101100	;
732	:	11111111111111110101110000101001	;
733	:	00000000000111101011100001010001	;
734	:	00000000001101010111001111101010	;
735	:	11111111111111001011111001100010	;
736	:	00000000010001110101111101101111	;
737	:	00000000000011110101110000101000	;
738	:	00000000001100011101111001101001	;
739	:	00000000000011100011101111001101	;
740	:	11111111110100101011110100111101	;
741	:	00000000001010110011011001111010	;
742	:	11111111110101011001101100111110	;
743	:	00000000000110100001110010101100	;
744	:	00000000000001000011000000101011	;
745	:	00000000001111110111110011101101	;
746	:	00000000000100001111111110010111	;
747	:	11111111110110100011011011100011	;
748	:	00000000000000001111111000000100	;
749	:	11111111111111010100100101010010	;
750	:	11111111110000010010000001011100	;
751	:	11111111110111101110110011000000	;
752	:	00000000010011010001101101110001	;
753	:	11111111111011110001101010100000	;
754	:	11111111111000100100110111010011	;
755	:	00000000001101101010111001111101	;
756	:	00000000001101111110100100001111	;
757	:	00000000000100010001100111001110	;
758	:	11111111101101001010001000110100	;
759	:	00000000000101000001001000000101	;
760	:	00000000000100101011110100111100	;
761	:	11111111110000110111101101001011	;
762	:	11111111110011100011101111001110	;
763	:	11111111101110111110011101101101	;
764	:	11111111101011110011010011010111	;
765	:	11111111111001100110011001100111	;
766	:	00000000010000100101101011101110	;
767	:	11111111101101000101001110001111	;
768	:	00000000001101101100100010110100	;
769	:	00000000001110011010011010110101	;
770	:	11111111110011011101001011110010	;
771	:	11111111101100110100110101101011	;
772	:	11111111111000110011100111000001	;
773	:	00000000001111011101100101111111	;
774	:	11111111110111001010110000001001	;
775	:	11111111110100010011010000000101	;
776	:	11111111111101011000111000100010	;
777	:	11111111110100010100111000111100	;
778	:	11111111101110001010000010010001	;
779	:	11111111101110111100110100110110	;
780	:	00000000010100110101101010000101	;
781	:	00000000001010101110011111010101	;
782	:	00000000000000011010100010101100	;
783	:	11111111101110101010110011011010	;

END;
