-- Copyright (C) 2020  Intel Corporation. All rights reserved.
-- Your use of Intel Corporation's design tools, logic functions 
-- and other software and tools, and any partner logic 
-- functions, and any output files from any of the foregoing 
-- (including device programming or simulation files), and any 
-- associated documentation or information are expressly subject 
-- to the terms and conditions of the Intel Program License 
-- Subscription Agreement, the Intel Quartus Prime License Agreement,
-- the Intel FPGA IP License Agreement, or other applicable license
-- agreement, including, without limitation, that your use is for
-- the sole purpose of programming logic devices manufactured by
-- Intel and sold by Intel or its authorized distributors.  Please
-- refer to the applicable agreement for further details, at
-- https://fpgasoftware.intel.com/eula.

-- Quartus Prime generated Memory Initialization File (.mif)

WIDTH=32;
DEPTH=784;

ADDRESS_RADIX=UNS;
DATA_RADIX=BIN;

CONTENT BEGIN

0	:	11111111110011010100111111100000	;
1	:	11111111111100101111111011000110	;
2	:	11111111110111111011111001110111	;
3	:	11111111101101010011111101111101	;
4	:	11111111101010000101100001111010	;
5	:	00000000010001000001100010010011	;
6	:	00000000010001010110110101011100	;
7	:	11111111101010001100000101010101	;
8	:	00000000010000010110111100000000	;
9	:	11111111101011111001110110110011	;
10	:	00000000010101100000010000011000	;
11	:	00000000001000111000100001100101	;
12	:	11111111101111110010111001001001	;
13	:	11111111110111011011001000101110	;
14	:	11111111101110000000001101000111	;
15	:	11111111110010000100101101011110	;
16	:	11111111110110111000101110101101	;
17	:	00000000000111100100111101110110	;
18	:	00000000001111100000110111101101	;
19	:	00000000000111110010000100101101	;
20	:	00000000000001111010100011010110	;
21	:	11111111111000001101111011010011	;
22	:	11111111110110111111010010001000	;
23	:	00000000000000011010100010101100	;
24	:	11111111111011010010100010001101	;
25	:	00000000001011001010010101111010	;
26	:	00000000000110101000010110000111	;
27	:	00000000000111100110100110101101	;
28	:	00000000001001001000111010001010	;
29	:	11111111111000101011011010101111	;
30	:	11111111101101011101110011000111	;
31	:	00000000001111111001011100100100	;
32	:	11111111111010010101111010011111	;
33	:	00000000001110111110011101101100	;
34	:	11111111111010011111101111101000	;
35	:	11111111110100011110101110000110	;
36	:	11111111111111101110001001000100	;
37	:	11111111110111010111110111000000	;
38	:	11111111111001001000111010001011	;
39	:	00000000001001101000000010011101	;
40	:	00000000000001110110100111101100	;
41	:	00000000001011001010010101111010	;
42	:	11111111110010101000110000010110	;
43	:	00000000000100100011101000101001	;
44	:	11111111111111111010001000101000	;
45	:	11111111111000011111111100101111	;
46	:	11111111111111100111010000101010	;
47	:	11111111110100011101000101001111	;
48	:	00000000000000111001100000100000	;
49	:	00000000010011110111011001011111	;
50	:	11111111111111101111000111111110	;
51	:	11111111111100011010100111111100	;
52	:	11111111110001011011110000000010	;
53	:	00000000000110001110001000011001	;
54	:	11111111111010111101001111000100	;
55	:	00000000000101111010011110000110	;
56	:	11111111110101111000110101010000	;
57	:	11111111110000011000100100111000	;
58	:	11111111111100101001010111101010	;
59	:	00000000001110110111111010010000	;
60	:	00000000001101011101110011000110	;
61	:	11111111101111100111011011001001	;
62	:	00000000000100010011010000000100	;
63	:	11111111111100011010100111111100	;
64	:	00000000000011100010000110010110	;
65	:	11111111111110100100101111011100	;
66	:	00000000010000111100100111101110	;
67	:	00000000001101110110010111111101	;
68	:	00000000001101110100101111000110	;
69	:	00000000000010101101101010111001	;
70	:	11111111101101111011010010100011	;
71	:	11111111101000110011100111000001	;
72	:	11111111110000000011010001101110	;
73	:	11111111110101100011100010000111	;
74	:	11111111101111110110001010110111	;
75	:	00000000001111001101001101011010	;
76	:	11111111111101010000101100010000	;
77	:	11111111111110010111010011100111	;
78	:	11111111101010001000110011101000	;
79	:	00000000001111110001010000010010	;
80	:	11111111111001000011111111100110	;
81	:	00000000010100110100000001001110	;
82	:	00000000000101110000101000111101	;
83	:	00000000001101000101001110001110	;
84	:	11111111111111111111001000001110	;
85	:	00000000010010011011101001011110	;
86	:	00000000000010011111011010101001	;
87	:	11111111101110000000001101000111	;
88	:	11111111111111110111011010100011	;
89	:	00000000010011011000010001001101	;
90	:	11111111110000010110111100000001	;
91	:	11111111110100100001111111110011	;
92	:	00000000001110001010000010010000	;
93	:	11111111100111111111001011100101	;
94	:	11111111110110000111100100111110	;
95	:	00000000000111110101010110011011	;
96	:	00000000000101001001010100011000	;
97	:	11111111110001000100110100000010	;
98	:	11111111111100110100110101101011	;
99	:	11111111101000100001100101100110	;
100	:	00000000001010000101100001111001	;
101	:	00000000000010010100110001000100	;
102	:	11111111111110110001100001010101	;
103	:	11111111111010000000100111010101	;
104	:	11111111101100110110011110100001	;
105	:	00000000001110101001001010100011	;
106	:	11111111101010010010101000110001	;
107	:	11111111110111010100100101010010	;
108	:	00000000000010011011010100100000	;
109	:	00000000000100110000101111100000	;
110	:	11111111111010000000100111010101	;
111	:	00000000001011000111000100001100	;
112	:	11111111110011000111111000101001	;
113	:	11111111101110001011101011001000	;
114	:	00000000000010001000010100001001	;
115	:	11111111111001001101110100110000	;
116	:	11111111111010011110000110110001	;
117	:	11111111111000001001000000101110	;
118	:	11111111111101011110110010000001	;
119	:	00000000000010101100000010000011	;
120	:	11111111101011011100010111010111	;
121	:	00000000010001111110001010000010	;
122	:	11111111111001111010000011111010	;
123	:	11111111111010000000100111010101	;
124	:	11111111101010010010101000110001	;
125	:	00000000000111000111011110011010	;
126	:	11111111110111001001000111010010	;
127	:	11111111111110110111000101110110	;
128	:	11111111111111110001001110001100	;
129	:	11111111111111000100110110101010	;
130	:	11111111110101101101010111010000	;
131	:	11111111111111110011011101110110	;
132	:	00000000000000000110101010110001	;
133	:	00000000001000110000010101010011	;
134	:	11111111101001010001000110011101	;
135	:	00000000000101110111001100011000	;
136	:	11111111101101101100100010110101	;
137	:	00000000000101111111011000101011	;
138	:	00000000001011010101110011111010	;
139	:	00000000001100100100011101000101	;
140	:	00000000010000110110000100010011	;
141	:	00000000010001110100010100111000	;
142	:	11111111110100111000111011110100	;
143	:	11111111110000101111100000111000	;
144	:	11111111101010100111111011111010	;
145	:	11111111110001111001001111011110	;
146	:	00000000001110111011001011111110	;
147	:	11111111101111101111100111011100	;
148	:	00000000000100101011110100111100	;
149	:	11111111111110010100100001010110	;
150	:	00000000000110101011100111110101	;
151	:	00000000001000111000100001100101	;
152	:	11111111111001101110100101111001	;
153	:	00000000000110010001011010000111	;
154	:	00000000000111111101100010101101	;
155	:	11111111110110101000010110001000	;
156	:	00000000000001010110010101111111	;
157	:	00000000000000110010110010100101	;
158	:	11111111110110000001000001100011	;
159	:	00000000010001000001100010010011	;
160	:	11111111110000110100011011011101	;
161	:	11111111111010111011100110001101	;
162	:	11111111111110010100100001010110	;
163	:	00000000001110111100110100110101	;
164	:	00000000000010011011101001011110	;
165	:	00000000001010110110101011100111	;
166	:	11111111101001001000111010001011	;
167	:	11111111111111100010000001000111	;
168	:	11111111111100010101101101011000	;
169	:	11111111110100001111111110011000	;
170	:	11111111111001011010111011100111	;
171	:	00000000010010110000111100100111	;
172	:	11111111101010001000110011101000	;
173	:	11111111111010011110000110110001	;
174	:	11111111110110000111100100111110	;
175	:	11111111110101110000101000111110	;
176	:	11111111110011111010101011001110	;
177	:	11111111110100011101000101001111	;
178	:	11111111110101011000000100000111	;
179	:	00000000000100100011101000101001	;
180	:	00000000000110000010101010011001	;
181	:	11111111111110110111010000010101	;
182	:	00000000000001010000010010000001	;
183	:	00000000000111101101001010001000	;
184	:	11111111111111100000001101110001	;
185	:	11111111111100110001100011111101	;
186	:	00000000001010000000100111010100	;
187	:	11111111111110101100010001110010	;
188	:	00000000000011100010000110010110	;
189	:	00000000000100101010001100000101	;
190	:	00000000000111000111011110011010	;
191	:	11111111101011100110001100100000	;
192	:	11111111111100011101111001101010	;
193	:	11111111111111010001011110000011	;
194	:	11111111110101000010110000111101	;
195	:	00000000010011110010011110111011	;
196	:	00000000000010001011011011011000	;
197	:	00000000000101000111101011100001	;
198	:	00000000010000110010110010100101	;
199	:	11111111111110011001110000111001	;
200	:	11111111110100110000101111100001	;
201	:	00000000000011110100000111110010	;
202	:	11111111111000001111100100001010	;
203	:	00000000000000010111111010111010	;
204	:	11111111110110001111110001010001	;
205	:	00000000001000110000010101010011	;
206	:	11111111110010111010110001110010	;
207	:	00000000000100011001110011100000	;
208	:	11111111110011100011101111001110	;
209	:	00000000001101001000011111111100	;
210	:	00000000001101011111011011111101	;
211	:	11111111110001111110001010000011	;
212	:	11111111111110110000100010011011	;
213	:	00000000001100101111111011000101	;
214	:	00000000001001000011111111100101	;
215	:	11111111110100111100001101100010	;
216	:	11111111111111101001000100000000	;
217	:	11111111111110011000100111100000	;
218	:	00000000001010101001100100110000	;
219	:	11111111110011110111011001100000	;
220	:	00000000000001111011110111001111	;
221	:	00000000000001100111011000100000	;
222	:	00000000010010011010000000100111	;
223	:	11111111110101110111001100011001	;
224	:	11111111101110110110010001011011	;
225	:	11111111111101110010000111010110	;
226	:	11111111110000101111100000111000	;
227	:	11111111111101111101111010010100	;
228	:	00000000000100100011101000101001	;
229	:	11111111110001100111001110000010	;
230	:	00000000000001010010011010010101	;
231	:	11111111111000110011100111000001	;
232	:	00000000000111100001101100001000	;
233	:	00000000001010101100110110011110	;
234	:	11111111111001000000101101111001	;
235	:	00000000000100111000111011110011	;
236	:	11111111111000000000110100011100	;
237	:	00000000000000011000111001110101	;
238	:	11111111110110010110010100101100	;
239	:	00000000001011110011010011010110	;
240	:	00000000001001110011100000011101	;
241	:	11111111110100110101101010000110	;
242	:	00000000000111010100100101010001	;
243	:	00000000001000001101111011010010	;
244	:	11111111110111010001010011100100	;
245	:	00000000000101010110011011001111	;
246	:	11111111111111011001110100110101	;
247	:	11111111111100111001110000001111	;
248	:	11111111111000000100000110001010	;
249	:	11111111111010010010101000110001	;
250	:	11111111110001101100001000100111	;
251	:	00000000010001011101011000111000	;
252	:	11111111101100101110010010001111	;
253	:	00000000000111011001011111110110	;
254	:	00000000000100110010011000010111	;
255	:	11111111101001101110100101111001	;
256	:	00000000000011110000110110000100	;
257	:	00000000001110000000001101000110	;
258	:	11111111101111100100001001011011	;
259	:	11111111111111111110000000000101	;
260	:	11111111101001110001110111100111	;
261	:	00000000000110111100000000011010	;
262	:	00000000000001001100001011111000	;
263	:	00000000000000000011100100100101	;
264	:	11111111111001011010111011100111	;
265	:	00000000000000011000000101011010	;
266	:	11111111111111010000101001101000	;
267	:	00000000001010010100010001100111	;
268	:	00000000000000000000010100001111	;
269	:	00000000000000010111011011011101	;
270	:	11111111111111011110000101011101	;
271	:	11111111111000010001001101000001	;
272	:	00000000011000010100011110101110	;
273	:	11111111110011001110011100000100	;
274	:	11111111111110010100001100011000	;
275	:	00000000000000110101001111110111	;
276	:	11111111110100101010001100000110	;
277	:	00000000001101000110110111000101	;
278	:	00000000000111110101010110011011	;
279	:	11111111111011100001010001111011	;
280	:	00000000001110111110011101101100	;
281	:	11111111111001111010000011111010	;
282	:	11111111111100011111100010100001	;
283	:	00000000001111110111110011101101	;
284	:	11111111101110110111111010010001	;
285	:	00000000010011001001100001011111	;
286	:	11111111111101100010011000101101	;
287	:	00000000010001010110110101011100	;
288	:	00000000000001001000011010101101	;
289	:	11111111110111101000001111100101	;
290	:	11111111111010000101100001111010	;
291	:	11111111111110011110000001100001	;
292	:	00000000010000011010001101101110	;
293	:	11111111111101011010100001011001	;
294	:	00000000001000000010011101010010	;
295	:	11111111111110100100111001111011	;
296	:	11111111110101110011111010101100	;
297	:	00000000000001100100110000101111	;
298	:	00000000001101100100010110100001	;
299	:	11111111111000010110000111100101	;
300	:	00000000000010101000110000010101	;
301	:	00000000000001001111111101000011	;
302	:	00000000000011100111000000111010	;
303	:	11111111111100010000110010110011	;
304	:	00000000000010001101101110001011	;
305	:	11111111101110011101101100100011	;
306	:	11111111111011110000000001101001	;
307	:	11111111110101011001101100111110	;
308	:	00000000001100111001110000001110	;
309	:	11111111110111110101010110011100	;
310	:	00000000000110111000101110101100	;
311	:	11111111111111001000001000010111	;
312	:	11111111111001110101001001010101	;
313	:	11111111110010111110000011011111	;
314	:	11111111111101111011111100011111	;
315	:	11111111101100100100011101000110	;
316	:	11111111111100110100110101101011	;
317	:	00000000000001100011010010010111	;
318	:	00000000001101010000101100001111	;
319	:	11111111110001101101110001011110	;
320	:	11111111110011101010010010101001	;
321	:	11111111110000010011101010010011	;
322	:	11111111111000101110101100011101	;
323	:	00000000001001001100001011111000	;
324	:	11111111111100100010110100001111	;
325	:	11111111111110001001100010110011	;
326	:	00000000000110110011110100000111	;
327	:	00000000000110111100000000011010	;
328	:	11111111110010010001110100010101	;
329	:	00000000001101101110001011101011	;
330	:	11111111111000111101011100001011	;
331	:	00000000010100110111010010111100	;
332	:	00000000000010101100000010000011	;
333	:	00000000000010011110010001001111	;
334	:	11111111110011000100100110111011	;
335	:	11111111101100110011001100110100	;
336	:	00000000000001100110001111000111	;
337	:	11111111111111111000001101111100	;
338	:	11111111111000100011001110011101	;
339	:	00000000010001010101001100100110	;
340	:	11111111101000101101000011100110	;
341	:	00000000000000000001001011000100	;
342	:	00000000001011000011110010011110	;
343	:	00000000001100100111101110110010	;
344	:	11111111110011010011010110101001	;
345	:	00000000000001011010010001101001	;
346	:	11111111110011110000110110000101	;
347	:	00000000001110110100101000100011	;
348	:	00000000001111101010101100110110	;
349	:	11111111110010000011000100100111	;
350	:	11111111111001001111011101100110	;
351	:	11111111111111011110001111111100	;
352	:	11111111101101001000011111111101	;
353	:	00000000000100110100000001001110	;
354	:	11111111110101111101101111110101	;
355	:	00000000000110000101111100000110	;
356	:	00000000000100001100101100101001	;
357	:	00000000000100001001011010111011	;
358	:	00000000010001011010000111001010	;
359	:	11111111110101100101001010111110	;
360	:	00000000010010101100000010000011	;
361	:	11111111101100100001001011011000	;
362	:	11111111111101000001111100100010	;
363	:	00000000001101001111000011011000	;
364	:	11111111110010001100111001110001	;
365	:	00000000010000011111001000010010	;
366	:	11111111111011001000101101000100	;
367	:	11111111111101110111000001111010	;
368	:	00000000001001110011100000011101	;
369	:	11111111110000100010011010000001	;
370	:	00000000001111111110010111001001	;
371	:	00000000001000111010001010011100	;
372	:	00000000001011100100100011101000	;
373	:	00000000000001001011101100011010	;
374	:	11111111111001000010010110101111	;
375	:	11111111111101000011100101011001	;
376	:	11111111111011011001000101101001	;
377	:	11111111110111110010000100101110	;
378	:	00000000000010100101011110100111	;
379	:	11111111110000001101000110111000	;
380	:	11111111110110101001111110111111	;
381	:	00000000000101001001010100011000	;
382	:	00000000000101100000010000011000	;
383	:	11111111110110000010101010011010	;
384	:	11111111111110010001001111101001	;
385	:	11111111110001011111000001110000	;
386	:	00000000001111000011011000010001	;
387	:	11111111110001011011110000000010	;
388	:	00000000000010111010110001110001	;
389	:	00000000001000111000100001100101	;
390	:	11111111110111101011100001010010	;
391	:	00000000000000000100101011111001	;
392	:	00000000001010001111010111000010	;
393	:	00000000010010100111000111011110	;
394	:	00000000000101000010110000111100	;
395	:	11111111111111100000001101110001	;
396	:	00000000000100110010011000010111	;
397	:	00000000001010000000100111010100	;
398	:	11111111110101111101101111110101	;
399	:	11111111111000001100010010011100	;
400	:	00000000001100100110000101111100	;
401	:	11111111111001011111110110001011	;
402	:	00000000010011111100010100000100	;
403	:	11111111111101000110110111000110	;
404	:	00000000001010101100110110011110	;
405	:	11111111101101000110110111000110	;
406	:	11111111111001111101010101100111	;
407	:	11111111110110101101010000101101	;
408	:	11111111111010000101100001111010	;
409	:	11111111111101101111101010000011	;
410	:	11111111111000110001111110001011	;
411	:	00000000000010101101101010111001	;
412	:	00000000001110001011101011000111	;
413	:	00000000001001111000011011000010	;
414	:	11111111110111110000011011110111	;
415	:	00000000000011010100111111011111	;
416	:	00000000000001110000111000101100	;
417	:	11111111101110001010000010010001	;
418	:	11111111111101101101101100001110	;
419	:	11111111111000110011100111000001	;
420	:	11111111111111101110101000100001	;
421	:	00000000001001000000101101111000	;
422	:	11111111111111110011001001111011	;
423	:	00000000000011011000010001001101	;
424	:	00000000001000001010101001100100	;
425	:	11111111111000110011100111000001	;
426	:	11111111111011111101001000100000	;
427	:	00000000000110001110001000011001	;
428	:	11111111111100111011011001000110	;
429	:	00000000000110001110001000011001	;
430	:	11111111111101010000101100010000	;
431	:	11111111111111110010110011111010	;
432	:	00000000000001100110011001100110	;
433	:	00000000000000111101111011100111	;
434	:	11111111101000001111100100001010	;
435	:	11111111110101111000110101010000	;
436	:	00000000000110101001111110111110	;
437	:	11111111101100110110011110100001	;
438	:	00000000001100001011111000001101	;
439	:	11111111110110100000001001110110	;
440	:	11111111110111010111110111000000	;
441	:	11111111111110111001000011101011	;
442	:	00000000000101011001101100111101	;
443	:	00000000001110011010011010110101	;
444	:	11111111111110011111010101011010	;
445	:	00000000001000100001100101100101	;
446	:	11111111110100010011010000000101	;
447	:	00000000001100100110000101111100	;
448	:	11111111101111101111100111011100	;
449	:	11111111111100100110000101111101	;
450	:	00000000001000001101111011010010	;
451	:	11111111111001001100001011111001	;
452	:	00000000000000010011111111010000	;
453	:	00000000010110011011001111010000	;
454	:	11111111111001100100110000110000	;
455	:	00000000001111011010010100010001	;
456	:	11111111110111101001111000011100	;
457	:	11111111110110111101101001010010	;
458	:	00000000001010001010011100011101	;
459	:	11111111111101011100001010010000	;
460	:	11111111111111111111101000110101	;
461	:	11111111101101101100100010110101	;
462	:	11111111111100101011000000100001	;
463	:	11111111111011011111101001000100	;
464	:	11111111111110110001001100010111	;
465	:	00000000001010011100011101111001	;
466	:	11111111110110111000101110101101	;
467	:	00000000000000000101000001111010	;
468	:	00000000001011001010010101111010	;
469	:	11111111111101010010010101000111	;
470	:	11111111111110101101000110001110	;
471	:	11111111111011110100111100001110	;
472	:	00000000000110110000100010011010	;
473	:	00000000010001010110110101011100	;
474	:	11111111111010010010101000110001	;
475	:	11111111101101000101001110001111	;
476	:	00000000000100001001011010111011	;
477	:	00000000001101111001101001101011	;
478	:	11111111110000101010100110010100	;
479	:	11111111110111010001010011100100	;
480	:	00000000000110011001100110011001	;
481	:	11111111110100010100111000111100	;
482	:	00000000001011011010101110011111	;
483	:	00000000000110000001000001100010	;
484	:	00000000001011100111110101010110	;
485	:	00000000001011000101011011010101	;
486	:	11111111111000010010110101111000	;
487	:	00000000000111010001010011100011	;
488	:	11111111111010110001110001000100	;
489	:	11111111101011001101100111101001	;
490	:	00000000000001111101100000000101	;
491	:	11111111101101110110010111111110	;
492	:	11111111110101001110001110111101	;
493	:	00000000000111100110100110101101	;
494	:	00000000000001110101001001010100	;
495	:	11111111110101010011001001100010	;
496	:	00000000000010110111100000000011	;
497	:	11111111111010001101101110001100	;
498	:	00000000000000001010010000011010	;
499	:	00000000001011101100101111111011	;
500	:	11111111101111111100101110010011	;
501	:	00000000010000110111101101001010	;
502	:	00000000000110111101101001010001	;
503	:	11111111101111100111011011001001	;
504	:	11111111111010101100110110011111	;
505	:	00000000010000001001110101001001	;
506	:	11111111101111001101001101011011	;
507	:	11111111101110001010000010010001	;
508	:	11111111110110111000101110101101	;
509	:	11111111110110001010110110101100	;
510	:	00000000000100011001110011100000	;
511	:	11111111101100111001110000001111	;
512	:	00000000000100001100101100101001	;
513	:	00000000001100100001001011010111	;
514	:	00000000000110110000100010011010	;
515	:	11111111110111011100110001100100	;
516	:	00000000000010111111101100010101	;
517	:	11111111111001000000101101111001	;
518	:	11111111101010111011100110001101	;
519	:	00000000001110101110000101000111	;
520	:	11111111110001010110110101011101	;
521	:	11111111111100011111100010100001	;
522	:	00000000000000110011111011111111	;
523	:	11111111111101010011111101111101	;
524	:	11111111111101010101100110110100	;
525	:	00000000000011100000011101011111	;
526	:	11111111110111001110000001110110	;
527	:	00000000000110000010101010011001	;
528	:	11111111111011001111010000100000	;
529	:	11111111101000111011110011010100	;
530	:	11111111111101111100011011111100	;
531	:	00000000001110100100001111111110	;
532	:	11111111111111011110111001111001	;
533	:	11111111101101001101011010100010	;
534	:	00000000000011111111100101110010	;
535	:	11111111101001111000011011000011	;
536	:	00000000010001001110101001001010	;
537	:	00000000001110000110110000100010	;
538	:	00000000000100001011000011110010	;
539	:	00000000001110001101010011111101	;
540	:	00000000000000100000110001001001	;
541	:	11111111110011011011100010111011	;
542	:	00000000000011110100000111110010	;
543	:	00000000000100101011110100111100	;
544	:	00000000000101001010111101001111	;
545	:	11111111111110001111111011110000	;
546	:	11111111111010010000111111111010	;
547	:	00000000000000001001010100101000	;
548	:	11111111111100110100110101101011	;
549	:	11111111111101101000111100001001	;
550	:	00000000000100101000100011001110	;
551	:	00000000000001110001001101101010	;
552	:	00000000000000001011010010011110	;
553	:	11111111111101011010100001011001	;
554	:	00000000001000010010110101110111	;
555	:	11111111110100101011110100111101	;
556	:	11111111111001010111101001111001	;
557	:	11111111110011111001000010010111	;
558	:	11111111111110101101011011001100	;
559	:	11111111110000101101111000000001	;
560	:	11111111101010111000010100011111	;
561	:	11111111101101111001101001101100	;
562	:	00000000010100011101000101001110	;
563	:	00000000000110000111100100111101	;
564	:	11111111110110101000010110001000	;
565	:	11111111111111101011100001010010	;
566	:	11111111110011000100100110111011	;
567	:	11111111110011111100010100000101	;
568	:	00000000001100111101000001111100	;
569	:	00000000000000010111000110011111	;
570	:	00000000001011001101100111101000	;
571	:	11111111111101100001101110110001	;
572	:	00000000000010001110011000001000	;
573	:	11111111111010101011001101101000	;
574	:	00000000001001111000011011000010	;
575	:	11111111110011001001100001100000	;
576	:	00000000000010001110110111100101	;
577	:	11111111101100001111001001111100	;
578	:	11111111111101011111010001011111	;
579	:	00000000000010010000110101011010	;
580	:	11111111110011000100100110111011	;
581	:	11111111111000111101011100001011	;
582	:	00000000001000010110000111100100	;
583	:	00000000000001011011111010100000	;
584	:	00000000001111101010101100110110	;
585	:	11111111110110100001110010101101	;
586	:	11111111110001001011010111011101	;
587	:	11111111101011110110100101000101	;
588	:	00000000001110011101101100100010	;
589	:	00000000001000000111010111110110	;
590	:	00000000001111100101110010010001	;
591	:	11111111110100110101101010000110	;
592	:	11111111111000110011100111000001	;
593	:	11111111111011001111010000100000	;
594	:	00000000000011011000010001001101	;
595	:	00000000001100000110111101101001	;
596	:	11111111111000101101000011100110	;
597	:	11111111111111010110001110001001	;
598	:	11111111111101110101111000100001	;
599	:	11111111111100011010100111111100	;
600	:	00000000001101001010001000110011	;
601	:	11111111110100101111000110101010	;
602	:	00000000000000100010100100011111	;
603	:	11111111110110100110101101010001	;
604	:	00000000001101001101011010100001	;
605	:	11111111111011011110000000001110	;
606	:	00000000001110010000100101101011	;
607	:	11111111110011111010101011001110	;
608	:	00000000010001100011111100010100	;
609	:	00000000000000111100010010110000	;
610	:	11111111111011010101110011111011	;
611	:	00000000010001111001001111011101	;
612	:	11111111110000110110000100010100	;
613	:	11111111110110001001001101110101	;
614	:	00000000000001110100111110110101	;
615	:	11111111110110100101000100011010	;
616	:	00000000010110000111100100111101	;
617	:	11111111111000110000010101010100	;
618	:	11111111111100111101000001111101	;
619	:	11111111111101001101011010100010	;
620	:	00000000001001110001110111100110	;
621	:	00000000000011110000110110000100	;
622	:	11111111111110101100111011101111	;
623	:	00000000001110000101000111101011	;
624	:	11111111101110010101100000010001	;
625	:	00000000000011101101100100010110	;
626	:	00000000000110010001011010000111	;
627	:	00000000001110100101111000110101	;
628	:	11111111110011010110101000010111	;
629	:	00000000010100101010001100000101	;
630	:	00000000000011110010011110111011	;
631	:	00000000000010111111101100010101	;
632	:	11111111101111101100010101101110	;
633	:	11111111110100111100001101100010	;
634	:	11111111110100110000101111100001	;
635	:	11111111101111101111100111011100	;
636	:	00000000001111101101111110100100	;
637	:	11111111101110100101111000110110	;
638	:	11111111110011101111001101001110	;
639	:	11111111110100001011000011110011	;
640	:	00000000000001001110110011101001	;
641	:	11111111110010111001001000111011	;
642	:	11111111110000111100100111101111	;
643	:	11111111111100010000110010110011	;
644	:	11111111111011010000111001010111	;
645	:	11111111110110111101101001010010	;
646	:	11111111110101011100111110101011	;
647	:	11111111111001110011100000011110	;
648	:	00000000000101110111001100011000	;
649	:	00000000000101001010111101001111	;
650	:	00000000001000011001011001010010	;
651	:	00000000000010001110000011001001	;
652	:	11111111110000110110000100010100	;
653	:	00000000010100000100100000010110	;
654	:	11111111111110101000010110001000	;
655	:	11111111111100010111010110001111	;
656	:	11111111111001101110100101111001	;
657	:	00000000000001000100101001100010	;
658	:	00000000000000000101111010100010	;
659	:	00000000000100000100100000010110	;
660	:	00000000001011111110110001010110	;
661	:	00000000000110111111010010000111	;
662	:	00000000000001100101011010101011	;
663	:	11111111110100010011010000000101	;
664	:	00000000000011001100110011001100	;
665	:	11111111111010011111101111101000	;
666	:	00000000000100100000010110111100	;
667	:	11111111110110111101101001010010	;
668	:	11111111111101000011100101011001	;
669	:	11111111111001111011101100110000	;
670	:	00000000000110001111110001010000	;
671	:	11111111101111100000110111101110	;
672	:	00000000001110101001001010100011	;
673	:	11111111101010111101001111000100	;
674	:	00000000001001101110100101111000	;
675	:	00000000000111100000000011010001	;
676	:	11111111111011010111011100110010	;
677	:	00000000010001101000110110111000	;
678	:	11111111110001111001001111011110	;
679	:	00000000001001010001000110011100	;
680	:	11111111101110100100001111111111	;
681	:	11111111110000110110000100010100	;
682	:	11111111111100100001001011011000	;
683	:	00000000001011101100101111111011	;
684	:	11111111111100000011101011111100	;
685	:	11111111110010000011000100100111	;
686	:	00000000000011100010000110010110	;
687	:	00000000000011111101111100111011	;
688	:	11111111110010000111111111001100	;
689	:	11111111110110101011100111110110	;
690	:	11111111101101000000010011101011	;
691	:	11111111110000110001001001101111	;
692	:	11111111101101001011110001101011	;
693	:	11111111110011010100111111100000	;
694	:	11111111110101110111001100011001	;
695	:	00000000000011100111000000111010	;
696	:	00000000010101001100100110000101	;
697	:	00000000000001001001111001000100	;
698	:	00000000010011011000010001001101	;
699	:	11111111111100111000000111011000	;
700	:	00000000001000001101111011010010	;
701	:	11111111101100110001100011111101	;
702	:	00000000001101001011110001101010	;
703	:	11111111111100010010011011101010	;
704	:	11111111111011001111010000100000	;
705	:	00000000000100111100001101100001	;
706	:	00000000000000000011111100101101	;
707	:	00000000000100101101011101110011	;
708	:	00000000001111100000110111101101	;
709	:	11111111100110100001110010101101	;
710	:	11111111110101101111000000000111	;
711	:	11111111111001110101001001010101	;
712	:	00000000000010001110000011001001	;
713	:	11111111100010100011110101110001	;
714	:	00000000000001111110110011111110	;
715	:	11111111111100010101101101011000	;
716	:	11111111101011111011011111101010	;
717	:	11111111110010011110111011001100	;
718	:	00000000010001010000010010000001	;
719	:	11111111111101100001100100010010	;
720	:	11111111110110110000100010011011	;
721	:	11111111101111001000010010110110	;
722	:	00000000010000100000110001001001	;
723	:	11111111111110100100000101100000	;
724	:	00000000001101111100111011011001	;
725	:	00000000001110111100110100110101	;
726	:	11111111110101000111101011100010	;
727	:	11111111110101100001111001010000	;
728	:	00000000000110111111010010000111	;
729	:	00000000000101000001001000000101	;
730	:	11111111110101011000000100000111	;
731	:	11111111111000000101101111000001	;
732	:	11111111110111011110011010011011	;
733	:	00000000000000001001011001111000	;
734	:	11111111110101110010010001110101	;
735	:	11111111111111010110011000101000	;
736	:	00000000000111010110001110001000	;
737	:	00000000010010001011010000111001	;
738	:	00000000000100010100111000111011	;
739	:	11111111101101010111001111101011	;
740	:	00000000010000010010000001011011	;
741	:	00000000000000111001111111111101	;
742	:	11111111111100001101100001000101	;
743	:	00000000000001001010001110000011	;
744	:	11111111101111100101110010010010	;
745	:	11111111101101101010111001111110	;
746	:	00000000000110001111110001010000	;
747	:	11111111110111010001010011100100	;
748	:	00000000000010101111010011110000	;
749	:	00000000000000011001011001010010	;
750	:	00000000010011101000101001110001	;
751	:	00000000010010000001011011110000	;
752	:	11111111111001101100111101000010	;
753	:	11111111110101001110001110111101	;
754	:	00000000010100101010001100000101	;
755	:	11111111110100000010110111100001	;
756	:	00000000000100100110111010010111	;
757	:	11111111101011001101100111101001	;
758	:	11111111101101011111011011111110	;
759	:	00000000010010101111010011110000	;
760	:	11111111101100010111010110001111	;
761	:	11111111110110010011000010111111	;
762	:	00000000010011100111000000111010	;
763	:	00000000010001000011001011001010	;
764	:	00000000000010100101011110100111	;
765	:	11111111101010000011111001000011	;
766	:	00000000000100101101011101110011	;
767	:	11111111110000100010011010000001	;
768	:	11111111110111110110111111010011	;
769	:	00000000000101010100110010011000	;
770	:	11111111101010101100110110011111	;
771	:	00000000000010111111101100010101	;
772	:	11111111110011100011101111001110	;
773	:	11111111111001001100001011111001	;
774	:	00000000001000111101011100001010	;
775	:	00000000001001110011100000011101	;
776	:	00000000000100111111011111001110	;
777	:	11111111101010001010011100011110	;
778	:	11111111111110001001000011010110	;
779	:	00000000000111101110110010111111	;
780	:	11111111101001110000001110110000	;
781	:	11111111110101111111011000101100	;
782	:	11111111110010000001011011110001	;
783	:	00000000000010101100000010000011	;

END;
