-- Copyright (C) 2020  Intel Corporation. All rights reserved.
-- Your use of Intel Corporation's design tools, logic functions 
-- and other software and tools, and any partner logic 
-- functions, and any output files from any of the foregoing 
-- (including device programming or simulation files), and any 
-- associated documentation or information are expressly subject 
-- to the terms and conditions of the Intel Program License 
-- Subscription Agreement, the Intel Quartus Prime License Agreement,
-- the Intel FPGA IP License Agreement, or other applicable license
-- agreement, including, without limitation, that your use is for
-- the sole purpose of programming logic devices manufactured by
-- Intel and sold by Intel or its authorized distributors.  Please
-- refer to the applicable agreement for further details, at
-- https://fpgasoftware.intel.com/eula.

-- Quartus Prime generated Memory Initialization File (.mif)

WIDTH=32;
DEPTH=784;

ADDRESS_RADIX=UNS;
DATA_RADIX=BIN;

CONTENT BEGIN

0	:	11111111110101101011101110011001	;
1	:	11111111110001111001001111011110	;
2	:	00000000000101001110001110111100	;
3	:	00000000001100000101010100110010	;
4	:	00000000001100001111001001111011	;
5	:	00000000001001111010000011111001	;
6	:	00000000001100001011111000001101	;
7	:	11111111101100101110010010001111	;
8	:	11111111110010000110010110010101	;
9	:	11111111110100110100000001001111	;
10	:	00000000000100011000001010101001	;
11	:	11111111101011001011111110110010	;
12	:	11111111110011100011101111001110	;
13	:	11111111110100101101011101110100	;
14	:	00000000001111100101110010010001	;
15	:	11111111101101100111101000010000	;
16	:	00000000000001000001100010010011	;
17	:	11111111110011001100110011001101	;
18	:	00000000010010111010110001110001	;
19	:	00000000010101111100000110111101	;
20	:	00000000001111001011100100100011	;
21	:	00000000001110111110011101101100	;
22	:	11111111111111111000011010100001	;
23	:	11111111110001011000011110010100	;
24	:	11111111101110010011110111011010	;
25	:	11111111101100000011101011111100	;
26	:	00000000000100000111110010000100	;
27	:	11111111110000001000001100010011	;
28	:	00000000000101001100100110000101	;
29	:	11111111111011101011000111000101	;
30	:	11111111110101000001001000000110	;
31	:	11111111111000011011000010001010	;
32	:	11111111111100011100010000110011	;
33	:	11111111111010001010011100011110	;
34	:	00000000010100100001111111110010	;
35	:	11111111101010010000111111111010	;
36	:	11111111110001010011100011110000	;
37	:	11111111101111010010001000000000	;
38	:	11111111101010001101101110001100	;
39	:	00000000010000001011011110000000	;
40	:	11111111111100111001110000001111	;
41	:	00000000001110011101101100100010	;
42	:	11111111110101000111101011100010	;
43	:	11111111110001000100110100000010	;
44	:	00000000001011000101011011010101	;
45	:	00000000001011110001101010011111	;
46	:	11111111101011000000100000110010	;
47	:	00000000001111000001101111011010	;
48	:	11111111111000000111010111110111	;
49	:	11111111110000011010001101101111	;
50	:	11111111101100001000100110100001	;
51	:	00000000010101101010000101100001	;
52	:	11111111111111110010110111000011	;
53	:	11111111111001100011000111111001	;
54	:	00000000000100111101110110010111	;
55	:	11111111101111111100101110010011	;
56	:	11111111101100111110101010110100	;
57	:	11111111111101011110100111100010	;
58	:	11111111110101100000010000011001	;
59	:	00000000001111000001101111011010	;
60	:	11111111101001111110111110011110	;
61	:	00000000010010101000110000010101	;
62	:	11111111111011110000000001101001	;
63	:	11111111101011111001110110110011	;
64	:	00000000000110010001011010000111	;
65	:	11111111111111011010011110110001	;
66	:	11111111110010011101010010010110	;
67	:	11111111110011101101100100010111	;
68	:	11111111111000001100010010011100	;
69	:	11111111101010000010010000001100	;
70	:	00000000000110100110101101010000	;
71	:	11111111101110000101000111101100	;
72	:	00000000000111010111110110111111	;
73	:	00000000000101100110110011110100	;
74	:	11111111111101110010100110110011	;
75	:	00000000000000001110101110101010	;
76	:	00000000000101010011001001100001	;
77	:	11111111111000101101000011100110	;
78	:	11111111101011100111110101010111	;
79	:	00000000001010100110010011000010	;
80	:	00000000001001001100001011111000	;
81	:	11111111110011101000101001110010	;
82	:	11111111101010100011000001010110	;
83	:	11111111110011100101011000000101	;
84	:	00000000001111010101011001101100	;
85	:	11111111111001000010010110101111	;
86	:	00000000000100000100100000010110	;
87	:	11111111101101000000010011101011	;
88	:	11111111101011000101011011010110	;
89	:	11111111101101010111001111101011	;
90	:	00000000001101111011010010100010	;
91	:	11111111110111111010010001000000	;
92	:	00000000001111000101000001001000	;
93	:	11111111111100111001110000001111	;
94	:	00000000000011010110101000010110	;
95	:	11111111111000011111111100101111	;
96	:	00000000000110010001011010000111	;
97	:	00000000000111011011001000101101	;
98	:	00000000000110011001100110011001	;
99	:	11111111110111010100100101010010	;
100	:	00000000000011111100010100000100	;
101	:	11111111110110011110100000111111	;
102	:	11111111111001010100011000001011	;
103	:	11111111111100100100011101000110	;
104	:	00000000001010101110011111010101	;
105	:	11111111101110010010001110100011	;
106	:	00000000000010110000111100100111	;
107	:	00000000001001101011010100001011	;
108	:	00000000001111101001000011111111	;
109	:	00000000001110010101100000010000	;
110	:	00000000000101010100110010011000	;
111	:	11111111111101010011111101111101	;
112	:	00000000010001001110101001001010	;
113	:	11111111111010110011011001111011	;
114	:	00000000001100101110010010001110	;
115	:	00000000000001001000100101001100	;
116	:	00000000001110110010111111101100	;
117	:	11111111110110111100000000011011	;
118	:	11111111111000010010110101111000	;
119	:	11111111110010110100001110010110	;
120	:	00000000010101010001100000101010	;
121	:	11111111111000111010001010011101	;
122	:	11111111111111110110010011010000	;
123	:	00000000001011011110000000001101	;
124	:	11111111101110000001110101111110	;
125	:	00000000000110011100111000000111	;
126	:	11111111111101010011111101111101	;
127	:	11111111111011000101011011010110	;
128	:	11111111111111110000100010001010	;
129	:	11111111111111000000011011100010	;
130	:	00000000000100100000010110111100	;
131	:	11111111110101100011100010000111	;
132	:	11111111110101110111001100011001	;
133	:	11111111111111000000000110100100	;
134	:	11111111110100010100111000111100	;
135	:	00000000000110100110101101010000	;
136	:	11111111111111000000010001000011	;
137	:	00000000000110000010101010011001	;
138	:	11111111111001011010111011100111	;
139	:	00000000001100101011000000100000	;
140	:	00000000000101001001010100011000	;
141	:	00000000010100100110111010010111	;
142	:	00000000000101101111000000000110	;
143	:	00000000000000001111100010000011	;
144	:	11111111110000111110010000100110	;
145	:	11111111111011110100111100001110	;
146	:	11111111110110110101011100111111	;
147	:	11111111111110001000001110111011	;
148	:	11111111110011000001010101001101	;
149	:	00000000000111110110111111010010	;
150	:	00000000001111101100010101101101	;
151	:	11111111110010000001011011110001	;
152	:	00000000001101110011000110001111	;
153	:	11111111111100110011001100110100	;
154	:	00000000000011110100000111110010	;
155	:	00000000000101100101001010111101	;
156	:	00000000000000111100011101001111	;
157	:	00000000000001011011000110000101	;
158	:	11111111111001101011010100001100	;
159	:	00000000000010101111010011110000	;
160	:	00000000001101110100101111000110	;
161	:	11111111111110110100101000100100	;
162	:	11111111111011110000000001101001	;
163	:	11111111101001111110111110011110	;
164	:	11111111101011111001110110110011	;
165	:	00000000001001111101010101100110	;
166	:	00000000001010111011100110001100	;
167	:	00000000001010111011100110001100	;
168	:	11111111101110111100110100110110	;
169	:	11111111111000001111100100001010	;
170	:	11111111111101111110101110110000	;
171	:	00000000001010000011111001000010	;
172	:	00000000001010000000100111010100	;
173	:	11111111111110010000010000101110	;
174	:	00000000000000101111101011010110	;
175	:	00000000000101110111001100011000	;
176	:	00000000001000000000110100011011	;
177	:	11111111110010010011011101001100	;
178	:	11111111111000101101000011100110	;
179	:	00000000001011010101110011111010	;
180	:	11111111111001001010100011000010	;
181	:	00000000000001110101111101101111	;
182	:	11111111110111101110110011000000	;
183	:	00000000001100001010001111010111	;
184	:	11111111110101001111110111110100	;
185	:	00000000000110000111100100111101	;
186	:	00000000000110000001000001100010	;
187	:	11111111110010001100111001110001	;
188	:	00000000000001111100110110001001	;
189	:	11111111111011000000100000110010	;
190	:	11111111111110010100101011110101	;
191	:	00000000000100011000001010101001	;
192	:	00000000010000010000011000100100	;
193	:	11111111110110001001001101110101	;
194	:	00000000001011000000100000110001	;
195	:	11111111111101011100011111001110	;
196	:	11111111101101010000101100010000	;
197	:	00000000010000100111010100100101	;
198	:	00000000001101111011010010100010	;
199	:	00000000000110010100101011110100	;
200	:	00000000001100001101100001000100	;
201	:	00000000001010110110101011100111	;
202	:	11111111111111000000010001000011	;
203	:	11111111111011111101001000100000	;
204	:	00000000000000000010100011100100	;
205	:	00000000000100100110111010010111	;
206	:	00000000001011100110001100011111	;
207	:	11111111110111110010000100101110	;
208	:	11111111111111101000100100100011	;
209	:	00000000001001000011111111100101	;
210	:	11111111111011010010100010001101	;
211	:	00000000000000011111011101010001	;
212	:	11111111111111110010000000100010	;
213	:	11111111111110000100010011010001	;
214	:	11111111111011001111010000100000	;
215	:	00000000001011001000101101000011	;
216	:	11111111111010010100010001101000	;
217	:	11111111111100101110010010001111	;
218	:	00000000000100011000001010101001	;
219	:	11111111110011011101001011110010	;
220	:	11111111110011111111100101110011	;
221	:	00000000001100001101100001000100	;
222	:	11111111110000010000011000100101	;
223	:	00000000000100010011010000000100	;
224	:	11111111101110100100001111111111	;
225	:	11111111101100111110101010110100	;
226	:	00000000010100000010110111100000	;
227	:	11111111110000110001001001101111	;
228	:	11111111111110000011010100010110	;
229	:	11111111111011010100001011000100	;
230	:	11111111110111001100011001000000	;
231	:	11111111110110111100000000011011	;
232	:	00000000001001100110011001100110	;
233	:	11111111111101011110111100100000	;
234	:	11111111110001100111001110000010	;
235	:	00000000000110000111100100111101	;
236	:	00000000000010100000111001000001	;
237	:	11111111110101001001010100011001	;
238	:	00000000001010100011000001010101	;
239	:	11111111110110110111000101110110	;
240	:	00000000001000001101111011010010	;
241	:	11111111111011110011010011010111	;
242	:	00000000000011110100000111110010	;
243	:	11111111101110110100101000100100	;
244	:	00000000001101010010010101000110	;
245	:	11111111111000010001001101000001	;
246	:	00000000000000001111101111101011	;
247	:	00000000000000000100110010001011	;
248	:	11111111110110100101000100011010	;
249	:	11111111101100010111010110001111	;
250	:	00000000010001101101110001011101	;
251	:	11111111111000110110111000101111	;
252	:	00000000000100000100100000010110	;
253	:	11111111110100001011000011110011	;
254	:	11111111101010100110010011000011	;
255	:	00000000010000010110111100000000	;
256	:	11111111111011110011010011010111	;
257	:	11111111111111011101111010111110	;
258	:	00000000010000110010110010100101	;
259	:	11111111111110110010010101110000	;
260	:	11111111110100010100111000111100	;
261	:	00000000000000100000110001001001	;
262	:	00000000010011111101111100111011	;
263	:	11111111111000010100011110101111	;
264	:	00000000000001110111010001101000	;
265	:	11111111111001110000001110110000	;
266	:	00000000000111100011010100111111	;
267	:	11111111111111011110001111111100	;
268	:	11111111111111100001100001101010	;
269	:	11111111110110100011011011100011	;
270	:	00000000000001100000000000101001	;
271	:	00000000001010001000110011100111	;
272	:	11111111111010110101000010110001	;
273	:	11111111111111101001111000011100	;
274	:	00000000001010001100000101010100	;
275	:	11111111111110101110011010000110	;
276	:	11111111111000011110010011111000	;
277	:	11111111101011100010111010110010	;
278	:	11111111110101001110001110111101	;
279	:	00000000001011111000001101111011	;
280	:	00000000001101000001111100100001	;
281	:	00000000001100010000110010110010	;
282	:	11111111101110001010000010010001	;
283	:	00000000000001101000000010011101	;
284	:	11111111110001011111000001110000	;
285	:	00000000000111000101110101100011	;
286	:	00000000000010111001001000111010	;
287	:	11111111111100001111001001111100	;
288	:	00000000010000110110000100010011	;
289	:	11111111111100101110010010001111	;
290	:	11111111111010010111100011010101	;
291	:	00000000000001110110111100101010	;
292	:	11111111111110001011110101100111	;
293	:	00000000000001001011001100111101	;
294	:	11111111111001111101010101100111	;
295	:	11111111110111110110111111010011	;
296	:	00000000000110111010010111100011	;
297	:	00000000001000100011001110011100	;
298	:	00000000000110000111100100111101	;
299	:	11111111101111000101000001001001	;
300	:	00000000001000001010101001100100	;
301	:	11111111111001100001011111000010	;
302	:	11111111110010010011011101001100	;
303	:	00000000001000101101000011100101	;
304	:	11111111111111111101111100111100	;
305	:	00000000000001110000011001001110	;
306	:	11111111101110011000110001111111	;
307	:	11111111101100001000100110100001	;
308	:	11111111111100011111100010100001	;
309	:	11111111101010001000110011101000	;
310	:	11111111110001011111000001110000	;
311	:	00000000000110000010101010011001	;
312	:	11111111101100101100101001011000	;
313	:	00000000001001101000000010011101	;
314	:	11111111110011100111000000111011	;
315	:	11111111101010010000111111111010	;
316	:	11111111110001000110011100111001	;
317	:	00000000000001001011000010011110	;
318	:	11111111110000101000111101011101	;
319	:	00000000000000111111111001011100	;
320	:	00000000000001101101011100011111	;
321	:	11111111110010011101010010010110	;
322	:	11111111111010101100110110011111	;
323	:	00000000000100110000101111100000	;
324	:	11111111110101100000010000011001	;
325	:	11111111110111100000000011010010	;
326	:	11111111110111001100011001000000	;
327	:	00000000000111110000011011110110	;
328	:	11111111111011011111101001000100	;
329	:	00000000000000000000101100011101	;
330	:	11111111110111001100011001000000	;
331	:	00000000001101001101011010100001	;
332	:	00000000001000001100010010011011	;
333	:	11111111111000101011011010101111	;
334	:	00000000001000011001011001010010	;
335	:	00000000000010001101101110001011	;
336	:	11111111111101011010100001011001	;
337	:	00000000000010101101101010111001	;
338	:	11111111101010101001100100110001	;
339	:	00000000000000100010101110111110	;
340	:	00000000001111010000011111001000	;
341	:	00000000001000010010110101110111	;
342	:	11111111111111001010100101101010	;
343	:	00000000000010101000110000010101	;
344	:	11111111111100010000110010110011	;
345	:	11111111110001010000010010000010	;
346	:	11111111111011111000001101111100	;
347	:	11111111110010100010001100111010	;
348	:	11111111101100100100011101000110	;
349	:	00000000000110000100010011010000	;
350	:	11111111111010001111010111000011	;
351	:	11111111110010110111100000000100	;
352	:	00000000000111110010000100101101	;
353	:	11111111110101111111011000101100	;
354	:	00000000001100011111100010100000	;
355	:	11111111110101111100000110111110	;
356	:	00000000001101101001010001000110	;
357	:	11111111111100110110011110100001	;
358	:	11111111101101000110110111000110	;
359	:	11111111110011100011101111001110	;
360	:	00000000001101111011010010100010	;
361	:	11111111110000011000100100111000	;
362	:	00000000000001101111000101010110	;
363	:	11111111110101100001111001010000	;
364	:	00000000001110101001001010100011	;
365	:	00000000001110110001010110110101	;
366	:	00000000010101100101001010111101	;
367	:	11111111101010111101001111000100	;
368	:	11111111101101011111011011111110	;
369	:	11111111101100100110000101111101	;
370	:	11111111101111000101000001001001	;
371	:	00000000000011000110001111110001	;
372	:	11111111101001011111110110001011	;
373	:	00000000001011011100010111010110	;
374	:	11111111111100100010110100001111	;
375	:	00000000000110010110010100101011	;
376	:	00000000000010010110001111011100	;
377	:	11111111110111101110110011000000	;
378	:	00000000000100000010110111100000	;
379	:	11111111110010110111100000000100	;
380	:	00000000001000110101001111110111	;
381	:	11111111111111010110001110001001	;
382	:	00000000000100000110001001001101	;
383	:	11111111110010110100001110010110	;
384	:	00000000000011100101011000000100	;
385	:	00000000000011110100000111110010	;
386	:	00000000001010010101111010011110	;
387	:	00000000000110000111100100111101	;
388	:	11111111101101010010010101000111	;
389	:	11111111110101101000011100101100	;
390	:	00000000001110100100001111111110	;
391	:	11111111111000010001001101000001	;
392	:	11111111111001011111110110001011	;
393	:	11111111111101010010010101000111	;
394	:	11111111111111000000010001000011	;
395	:	00000000000000010100011110101110	;
396	:	11111111110111000100001100101101	;
397	:	00000000000000100000010001101100	;
398	:	11111111101101111011010010100011	;
399	:	00000000001010100011000001010101	;
400	:	11111111111011010010100010001101	;
401	:	11111111111110011110101011011110	;
402	:	11111111111000110000010101010100	;
403	:	00000000000100111100001101100001	;
404	:	11111111111011110011010011010111	;
405	:	11111111111100011000111111000110	;
406	:	00000000001000111111000101000001	;
407	:	11111111111111110100111100001110	;
408	:	11111111111001100001011111000010	;
409	:	11111111110111001100011001000000	;
410	:	11111111111000101101000011100110	;
411	:	00000000000011110000110110000100	;
412	:	11111111111101010010010101000111	;
413	:	11111111111111110101010111011111	;
414	:	11111111110000100111010100100110	;
415	:	00000000000000101101100011000010	;
416	:	11111111101011110011010011010111	;
417	:	00000000001010100111111011111001	;
418	:	00000000010000111111111001011100	;
419	:	11111111110101011100111110101011	;
420	:	11111111111100000101010100110011	;
421	:	00000000001101000101001110001110	;
422	:	11111111110001101111011010010101	;
423	:	11111111111110001011000001001011	;
424	:	11111111111100101110010010001111	;
425	:	00000000000100000110001001001101	;
426	:	11111111110100110111010010111101	;
427	:	00000000000000111000001100100111	;
428	:	00000000001011101011000111000100	;
429	:	11111111111111010001010011100100	;
430	:	11111111111010001100000101010101	;
431	:	11111111111111011010110011101111	;
432	:	00000000001000011100101011000000	;
433	:	11111111111110010010100011100001	;
434	:	11111111110101110011111010101100	;
435	:	00000000000011001100110011001100	;
436	:	00000000000001001010001110000011	;
437	:	00000000001100010010011011101001	;
438	:	00000000000010100111000111011110	;
439	:	00000000000100101000100011001110	;
440	:	00000000000001011101100011010111	;
441	:	11111111110101111010011110000111	;
442	:	11111111110100111000111011110100	;
443	:	00000000001010110011011001111010	;
444	:	11111111111111011100011100100110	;
445	:	00000000010001110100010100111000	;
446	:	00000000001011011100010111010110	;
447	:	00000000001111100101110010010001	;
448	:	11111111101110000011011110110101	;
449	:	00000000000111000000111010111110	;
450	:	00000000001001101100111101000001	;
451	:	00000000001001001000111010001010	;
452	:	00000000010011011011100010111010	;
453	:	00000000001001010100011000001010	;
454	:	00000000000100111111011111001110	;
455	:	11111111110101011110100111100010	;
456	:	11111111111000010110000111100101	;
457	:	00000000000010100111000111011110	;
458	:	00000000001100100001001011010111	;
459	:	11111111111001110011100000011110	;
460	:	00000000000100010110100001110010	;
461	:	00000000000101100001111001001111	;
462	:	11111111111100000101010100110011	;
463	:	00000000000101001111110111110011	;
464	:	11111111111010001000110011101000	;
465	:	11111111111000111101011100001011	;
466	:	11111111110111001010110000001001	;
467	:	11111111111100100100011101000110	;
468	:	11111111111011101100101111111100	;
469	:	00000000000001111010011000110111	;
470	:	00000000000011011101001011110001	;
471	:	00000000000110010011000010111110	;
472	:	00000000000101111000110101001111	;
473	:	00000000000010000010010000001011	;
474	:	00000000001011101001011110001101	;
475	:	11111111111000101011011010101111	;
476	:	11111111111100100001001011011000	;
477	:	11111111110011110100000111110011	;
478	:	11111111111000011011000010001010	;
479	:	00000000000000010111100101111100	;
480	:	11111111101111011111001110110111	;
481	:	00000000000010010011011101001011	;
482	:	00000000001101010101100110110011	;
483	:	00000000001111001101001101011010	;
484	:	00000000000001101110011011011001	;
485	:	11111111111101110011100101101110	;
486	:	00000000000100010110100001110010	;
487	:	11111111111111101101111110100101	;
488	:	11111111111000101011011010101111	;
489	:	00000000000100111100001101100001	;
490	:	00000000000001111011010111110001	;
491	:	11111111111110101010011110011100	;
492	:	00000000000100111000111011110011	;
493	:	00000000000100101000100011001110	;
494	:	00000000000010100000000100100101	;
495	:	00000000000001000001110111010001	;
496	:	00000000000100011101000101001110	;
497	:	11111111111110100101000100011010	;
498	:	11111111111011110000000001101001	;
499	:	00000000001001110101001001010100	;
500	:	11111111110001011101011000111001	;
501	:	00000000001101101110001011101011	;
502	:	00000000010111000100001100101100	;
503	:	00000000010011001001100001011111	;
504	:	11111111110000011011110110100110	;
505	:	11111111110101110111001100011001	;
506	:	11111111101100100110000101111101	;
507	:	00000000001001111000011011000010	;
508	:	00000000001100000101010100110010	;
509	:	11111111111010011010110101000011	;
510	:	11111111111110110011011111001010	;
511	:	11111111110110111000101110101101	;
512	:	00000000000010011001110110001000	;
513	:	00000000000001101011101001001001	;
514	:	11111111111100001011111000001110	;
515	:	00000000001010001111010111000010	;
516	:	00000000000111111101100010101101	;
517	:	11111111111111100001110110101000	;
518	:	00000000000101110101100011100010	;
519	:	11111111111100101100101001011000	;
520	:	00000000000101111100000110111101	;
521	:	11111111111110000000010111100110	;
522	:	00000000000001011100001111011110	;
523	:	11111111111101101100101101010100	;
524	:	11111111111011111110110001010111	;
525	:	00000000001000111111000101000001	;
526	:	11111111111001100001011111000010	;
527	:	00000000000010110111100000000011	;
528	:	00000000010010011101010010010101	;
529	:	00000000010010100111000111011110	;
530	:	11111111110000101100001111001010	;
531	:	00000000000000100001000110000111	;
532	:	00000000010001011101011000111000	;
533	:	00000000000110011100111000000111	;
534	:	00000000001111010011110000110110	;
535	:	00000000000111100110100110101101	;
536	:	00000000000100011101000101001110	;
537	:	00000000001000000010011101010010	;
538	:	11111111111000110001111110001011	;
539	:	00000000001100111000000111010111	;
540	:	00000000000001001101110100101111	;
541	:	00000000000010001100100100110010	;
542	:	00000000000100100001111111110010	;
543	:	11111111111011010010100010001101	;
544	:	11111111111100110001100011111101	;
545	:	11111111111111001101000010111100	;
546	:	00000000000100000001001110101001	;
547	:	11111111111111100000100010101111	;
548	:	00000000000001001111101000000101	;
549	:	11111111110111001010110000001001	;
550	:	00000000001000001010101001100100	;
551	:	11111111111010000010010000001100	;
552	:	00000000001001001100001011111000	;
553	:	11111111110110000001000001100011	;
554	:	00000000010001110101111101101111	;
555	:	11111111111000001100010010011100	;
556	:	00000000000100101111000110101001	;
557	:	00000000010101100101001010111101	;
558	:	00000000010000000001101000110110	;
559	:	00000000010010001100111001110000	;
560	:	11111111101011110001101010100000	;
561	:	11111111111000100011001110011101	;
562	:	11111111110001000110011100111001	;
563	:	11111111100111011100110001100100	;
564	:	11111111111010001111010111000011	;
565	:	11111111111101100100100001000001	;
566	:	00000000001001011111110110001010	;
567	:	11111111111110111111110001100110	;
568	:	00000000000010100101011110100111	;
569	:	00000000000001111010001110011000	;
570	:	11111111111111000010000100011001	;
571	:	00000000000111011100110001100011	;
572	:	00000000000010010001010100110111	;
573	:	11111111111101101000110001101010	;
574	:	00000000001010011110000110110000	;
575	:	11111111110011011000010001001110	;
576	:	00000000001001100011000111111000	;
577	:	00000000000000100001100101100101	;
578	:	00000000000100100101010001100000	;
579	:	00000000000101101101010111001111	;
580	:	11111111111001011110001101010100	;
581	:	11111111111011101100101111111100	;
582	:	00000000001101000011100101011000	;
583	:	11111111111110101100011100010001	;
584	:	11111111111010001000110011101000	;
585	:	11111111110010011010000000101000	;
586	:	11111111110011010000000100111011	;
587	:	00000000001100101110010010001110	;
588	:	00000000001001011111110110001010	;
589	:	11111111101111100100001001011011	;
590	:	00000000001000001001000000101101	;
591	:	00000000010000110010110010100101	;
592	:	00000000000010100111000111011110	;
593	:	11111111111111111110000011001111	;
594	:	11111111111111011001110100110101	;
595	:	00000000000010001011100101110111	;
596	:	11111111111100010111010110001111	;
597	:	00000000001100100111101110110010	;
598	:	11111111111011110000000001101001	;
599	:	00000000000001111000010000100011	;
600	:	11111111111111000010000100011001	;
601	:	11111111111000110011100111000001	;
602	:	11111111111101000011100101011001	;
603	:	00000000000111001001000111010001	;
604	:	00000000000001010000000111100010	;
605	:	11111111110001001001101110100110	;
606	:	00000000000001100001011111000001	;
607	:	00000000000111000100001100101100	;
608	:	11111111111001110101001001010101	;
609	:	00000000001110100000111110010000	;
610	:	11111111111000100110100000001010	;
611	:	00000000001001011110001101010011	;
612	:	00000000001010100100101010001100	;
613	:	11111111111010011001001100001100	;
614	:	00000000001010011110000110110000	;
615	:	00000000010000001000001100010010	;
616	:	11111111110111010100100101010010	;
617	:	00000000000011011001111010000011	;
618	:	11111111101111111110010111001010	;
619	:	00000000000011000100100110111010	;
620	:	00000000001010101011001101100111	;
621	:	00000000001100111001110000001110	;
622	:	11111111110110100011011011100011	;
623	:	00000000000111100100111101110110	;
624	:	11111111111100000110111101101010	;
625	:	00000000000000101001100111011000	;
626	:	11111111111011101110011000110010	;
627	:	00000000000011000001010101001100	;
628	:	00000000000000111001000001000010	;
629	:	00000000000110100011011011100010	;
630	:	11111111111010001100000101010101	;
631	:	11111111111010101100110110011111	;
632	:	00000000000111100000000011010001	;
633	:	00000000000011011101001011110001	;
634	:	00000000000011010000000100111010	;
635	:	00000000000001001000111010001010	;
636	:	11111111110110000010101010011010	;
637	:	00000000001101101010111001111101	;
638	:	00000000001101001111000011011000	;
639	:	11111111110100010110100001110011	;
640	:	00000000001001001101110100101111	;
641	:	00000000001001100001011111000001	;
642	:	00000000010010000111111111001011	;
643	:	00000000010101000001001000000101	;
644	:	00000000010101011011010101110011	;
645	:	11111111110001001000000101110000	;
646	:	11111111111101011100001010010000	;
647	:	00000000000001110001110111100110	;
648	:	11111111101110011000110001111111	;
649	:	11111111101100011101111001101010	;
650	:	00000000001111001000010010110101	;
651	:	11111111111010000101100001111010	;
652	:	11111111111111111001101001001010	;
653	:	00000000001011000000100000110001	;
654	:	11111111110110010100101011110101	;
655	:	00000000000110100001110010101100	;
656	:	11111111111101011000111000100010	;
657	:	11111111111011010010100010001101	;
658	:	11111111111100111110101010110100	;
659	:	00000000001000101110101100011100	;
660	:	11111111101100001111001001111100	;
661	:	00000000000001010000010010000001	;
662	:	00000000010001101111011010010100	;
663	:	11111111101110110001010110110110	;
664	:	00000000001010001101101110001011	;
665	:	00000000000100100001111111110010	;
666	:	00000000000100010110100001110010	;
667	:	11111111111011001111010000100000	;
668	:	00000000010001000011001011001010	;
669	:	00000000001000101011011010101110	;
670	:	11111111111000100100110111010011	;
671	:	00000000000110000100010011010000	;
672	:	00000000010101110011111010101011	;
673	:	11111111110011011000010001001110	;
674	:	11111111111111110100000110101111	;
675	:	00000000000101011001101100111101	;
676	:	00000000000011110010011110111011	;
677	:	11111111110100000111110010000101	;
678	:	00000000001001011110001101010011	;
679	:	11111111101110011101101100100011	;
680	:	11111111110111000010100011110110	;
681	:	11111111110101101101010111010000	;
682	:	00000000000110010111111101100010	;
683	:	11111111101011111011011111101010	;
684	:	00000000001010100111111011111001	;
685	:	11111111111110111000011001101111	;
686	:	11111111110101001100100110000110	;
687	:	00000000000011111010101011001101	;
688	:	00000000000001101011111110000111	;
689	:	11111111111111011011001000101110	;
690	:	11111111101111010011110000110111	;
691	:	00000000001010011111101111100111	;
692	:	11111111111110011011101110101110	;
693	:	00000000000011100011101111001101	;
694	:	11111111101111011011111101001001	;
695	:	11111111101011001011111110110010	;
696	:	00000000000000100100100010010100	;
697	:	11111111101010101110011111010110	;
698	:	11111111101100010100000100100001	;
699	:	00000000001011100010111010110001	;
700	:	11111111110011101101100100010111	;
701	:	11111111111100110001100011111101	;
702	:	11111111111101011111010001011111	;
703	:	00000000000110100000001001110101	;
704	:	11111111101011000010001001101001	;
705	:	00000000000110000101111100000110	;
706	:	00000000000101111000110101001111	;
707	:	00000000001001010100011000001010	;
708	:	00000000001001100100110000101111	;
709	:	11111111101011111001110110110011	;
710	:	00000000000101101111000000000110	;
711	:	00000000000010011011111110011100	;
712	:	11111111101110011101101100100011	;
713	:	11111111110000000000000000000000	;
714	:	11111111111000010111110000011100	;
715	:	11111111101011001101100111101001	;
716	:	00000000000110101000010110000111	;
717	:	11111111110101000110000010101011	;
718	:	11111111110111111011111001110111	;
719	:	00000000010000100000110001001001	;
720	:	11111111111000101101000011100110	;
721	:	00000000000011000100100110111010	;
722	:	00000000001001000011111111100101	;
723	:	00000000010010101000110000010101	;
724	:	11111111110001011011110000000010	;
725	:	00000000010001010000010010000001	;
726	:	00000000001011010010100010001100	;
727	:	11111111101111001011100100100100	;
728	:	00000000000011011001111010000011	;
729	:	11111111110110110101011100111111	;
730	:	11111111111111011111101110010100	;
731	:	00000000010001111110001010000010	;
732	:	11111111111100011000111111000110	;
733	:	00000000000111010001010011100011	;
734	:	11111111101010011001001100001100	;
735	:	11111111101011000010001001101001	;
736	:	11111111110110101110111001100100	;
737	:	00000000001010000000100111010100	;
738	:	11111111111110001110100111110111	;
739	:	11111111111100000110111101101010	;
740	:	11111111110011100010000110010111	;
741	:	00000000001001011111110110001010	;
742	:	00000000001100111000000111010111	;
743	:	00000000001010100110010011000010	;
744	:	11111111110011110100000111110011	;
745	:	00000000000010101010011001001100	;
746	:	11111111101101001010001000110100	;
747	:	00000000000011000001010101001100	;
748	:	11111111101001011110001101010100	;
749	:	11111111111100100110000101111101	;
750	:	00000000010000010110111100000000	;
751	:	11111111110011011101001011110010	;
752	:	00000000001010101110011111010101	;
753	:	00000000001101001101011010100001	;
754	:	00000000000101100001111001001111	;
755	:	00000000001010111101001111000011	;
756	:	00000000010101101011101110011000	;
757	:	00000000001010011001001100001011	;
758	:	11111111101010010100010001101000	;
759	:	00000000000000101000110010111101	;
760	:	00000000001011110100111100001101	;
761	:	11111111111110110010101010101111	;
762	:	00000000000111101000001111100100	;
763	:	11111111111010011010110101000011	;
764	:	00000000000010101000110000010101	;
765	:	11111111110110010110010100101100	;
766	:	11111111110000000001101000110111	;
767	:	11111111111000101011011010101111	;
768	:	00000000001111101101111110100100	;
769	:	00000000000000011111100111110000	;
770	:	11111111110010110000111100101000	;
771	:	11111111101111101001000100000000	;
772	:	00000000010011100101011000000100	;
773	:	11111111111110111101011110110011	;
774	:	11111111101100100111101110110011	;
775	:	00000000000101000001001000000101	;
776	:	00000000000010010111011000110101	;
777	:	00000000000001101001100000110101	;
778	:	00000000000010010100000111001000	;
779	:	00000000010101011100111110101010	;
780	:	11111111110000101000111101011101	;
781	:	11111111101111110100100010000000	;
782	:	11111111110101110111001100011001	;
783	:	11111111111010010111100011010101	;

END;
