-- Copyright (C) 2020  Intel Corporation. All rights reserved.
-- Your use of Intel Corporation's design tools, logic functions 
-- and other software and tools, and any partner logic 
-- functions, and any output files from any of the foregoing 
-- (including device programming or simulation files), and any 
-- associated documentation or information are expressly subject 
-- to the terms and conditions of the Intel Program License 
-- Subscription Agreement, the Intel Quartus Prime License Agreement,
-- the Intel FPGA IP License Agreement, or other applicable license
-- agreement, including, without limitation, that your use is for
-- the sole purpose of programming logic devices manufactured by
-- Intel and sold by Intel or its authorized distributors.  Please
-- refer to the applicable agreement for further details, at
-- https://fpgasoftware.intel.com/eula.

-- Quartus Prime generated Memory Initialization File (.mif)

WIDTH=32;
DEPTH=784;

ADDRESS_RADIX=UNS;
DATA_RADIX=BIN;

CONTENT BEGIN

0	:	00000000001000110101001111110111	;
1	:	00000000001001011001010010101111	;
2	:	00000000001011001000101101000011	;
3	:	11111111101111101001000100000000	;
4	:	00000000010011111100010100000100	;
5	:	00000000001001101100111101000001	;
6	:	11111111111111111010010100001010	;
7	:	00000000001010111101001111000011	;
8	:	00000000010011010110101000010110	;
9	:	11111111110100001111111110011000	;
10	:	11111111101011010101110011111011	;
11	:	11111111101010000000100111010101	;
12	:	00000000010011101011111011011111	;
13	:	11111111111100110100110101101011	;
14	:	00000000001000101011011010101110	;
15	:	00000000001101010011111101111100	;
16	:	11111111111001111010000011111010	;
17	:	11111111111010110000001000001101	;
18	:	00000000010101100110110011110100	;
19	:	00000000000111000101110101100011	;
20	:	00000000000100000110001001001101	;
21	:	11111111101111011010010100010010	;
22	:	11111111101100000000011010001110	;
23	:	11111111101101110011000110010000	;
24	:	00000000001110110100101000100011	;
25	:	00000000000110010011000010111110	;
26	:	11111111110010000100101101011110	;
27	:	11111111111111100110010001110000	;
28	:	00000000010000000110100011011011	;
29	:	00000000000010011011101001011110	;
30	:	00000000001111010111000010100011	;
31	:	11111111110011111010101011001110	;
32	:	11111111101111011111001110110111	;
33	:	00000000010010101101101010111001	;
34	:	00000000000101110101100011100010	;
35	:	00000000000011101111001101001101	;
36	:	11111111110011011101001011110010	;
37	:	11111111110101110111001100011001	;
38	:	00000000000011101111001101001101	;
39	:	00000000001101001111000011011000	;
40	:	00000000010000110110000100010011	;
41	:	11111111110011001011001010010110	;
42	:	00000000001010011110000110110000	;
43	:	11111111110010100000100100000011	;
44	:	00000000010000101010100110010011	;
45	:	00000000010010110010100101011110	;
46	:	11111111110000000001101000110111	;
47	:	11111111101011110110100101000101	;
48	:	00000000010000000011010001101101	;
49	:	11111111101100111001110000001111	;
50	:	00000000010100000001001110101001	;
51	:	11111111111001101001101011010101	;
52	:	00000000010011111111100101110010	;
53	:	11111111101100101001010111101010	;
54	:	11111111110110000100010011010001	;
55	:	00000000000011111100010100000100	;
56	:	00000000010011000111111000101000	;
57	:	11111111110111110110111111010011	;
58	:	11111111111110000101110001101000	;
59	:	00000000010011101011111011011111	;
60	:	11111111101110101100011100010001	;
61	:	00000000000111010100100101010001	;
62	:	11111111111000010010110101111000	;
63	:	00000000001111100010100000100100	;
64	:	00000000000110011011001111010000	;
65	:	11111111111101000110110111000110	;
66	:	00000000000111001001000111010001	;
67	:	00000000001011000111000100001100	;
68	:	11111111110100000110001001001110	;
69	:	11111111110101101111000000000111	;
70	:	11111111101111110010111001001001	;
71	:	00000000000100101010001100000101	;
72	:	11111111111010001100000101010101	;
73	:	00000000001000000100000110001001	;
74	:	11111111110001110100010100111001	;
75	:	00000000000100110000101111100000	;
76	:	11111111101011110001101010100000	;
77	:	00000000000100000001001110101001	;
78	:	11111111101010011100011101111010	;
79	:	11111111101010111001111101010110	;
80	:	11111111111101101011011001011011	;
81	:	11111111110100000100100000010111	;
82	:	00000000010001110101111101101111	;
83	:	11111111101010111001111101010110	;
84	:	11111111101110001101010011111110	;
85	:	00000000000111010100100101010001	;
86	:	00000000001000011011000010001001	;
87	:	00000000001101001101011010100001	;
88	:	11111111111001011100100100011110	;
89	:	00000000010101100011100010000110	;
90	:	00000000000101111100000110111101	;
91	:	00000000010001010101001100100110	;
92	:	00000000010001001110101001001010	;
93	:	00000000000100111000111011110011	;
94	:	00000000000101000110000010101010	;
95	:	00000000000100000111110010000100	;
96	:	11111111111101010111001111101011	;
97	:	00000000010000000110100011011011	;
98	:	11111111101001001100001011111001	;
99	:	00000000001101100101111111011000	;
100	:	11111111110101010110011011010000	;
101	:	00000000001000011001011001010010	;
102	:	00000000000010101111010011110000	;
103	:	11111111111110111110111101001010	;
104	:	11111111101101001111000011011001	;
105	:	00000000001110101110000101000111	;
106	:	00000000010101100001111001001111	;
107	:	11111111110100001111111110011000	;
108	:	00000000001100001111001001111011	;
109	:	11111111110010111010110001110010	;
110	:	00000000010011111100010100000100	;
111	:	00000000001101111000000000110100	;
112	:	00000000001000110101001111110111	;
113	:	00000000001010110011011001111010	;
114	:	00000000000110011011001111010000	;
115	:	11111111101010000101100001111010	;
116	:	00000000000101110011111010101011	;
117	:	00000000000100000100100000010110	;
118	:	00000000000100110111010010111100	;
119	:	11111111101100111011011001000110	;
120	:	00000000001011000011110010011110	;
121	:	00000000010000100100000010110111	;
122	:	11111111101001000010010110101111	;
123	:	00000000000111100000000011010001	;
124	:	11111111111110111100110100110110	;
125	:	11111111101010010111100011010101	;
126	:	11111111111001110101001001010101	;
127	:	00000000000010110000111100100111	;
128	:	11111111110111101101001010001001	;
129	:	00000000001001010100011000001010	;
130	:	11111111101000001100010010011100	;
131	:	00000000000111000000111010111110	;
132	:	00000000001001100110011001100110	;
133	:	11111111101100111110101010110100	;
134	:	11111111101001110110110010001100	;
135	:	00000000001110000000001101000110	;
136	:	11111111111111101010000010111011	;
137	:	11111111111000001010101001100101	;
138	:	00000000001110110111111010010000	;
139	:	00000000000110001010110110101011	;
140	:	11111111101101100001000100110101	;
141	:	11111111101111100111011011001001	;
142	:	00000000001101101110001011101011	;
143	:	11111111110111000101110101100100	;
144	:	00000000010101000001001000000101	;
145	:	11111111110111000111011110011011	;
146	:	11111111111010000101100001111010	;
147	:	11111111110101111010011110000111	;
148	:	00000000000010111110000011011110	;
149	:	11111111101001011001010010110000	;
150	:	00000000001101010000101100001111	;
151	:	11111111111000101000001001000001	;
152	:	11111111111000011011000010001010	;
153	:	00000000000110011100111000000111	;
154	:	00000000000100101101011101110011	;
155	:	11111111110111111010010001000000	;
156	:	11111111111000111000100001100110	;
157	:	11111111111101110101111000100001	;
158	:	11111111111000111000100001100110	;
159	:	11111111111110101101100101101011	;
160	:	11111111111001010001000110011101	;
161	:	11111111111111011010010100010010	;
162	:	11111111100111110011101101100101	;
163	:	11111111111110110111010000010101	;
164	:	11111111111001100011000111111001	;
165	:	11111111110001110001000011001100	;
166	:	00000000001000011011000010001001	;
167	:	00000000001111010111000010100011	;
168	:	11111111110101111100000110111110	;
169	:	00000000000110000010101010011001	;
170	:	11111111111010101011001101101000	;
171	:	00000000010001001110101001001010	;
172	:	11111111111000101110101100011101	;
173	:	11111111110001100011111100010101	;
174	:	11111111111111110001000100110000	;
175	:	11111111111101001111000011011001	;
176	:	00000000000000111001110101011110	;
177	:	11111111111100100110000101111101	;
178	:	11111111110011001011001010010110	;
179	:	00000000000100001001011010111011	;
180	:	00000000000010000100110111111100	;
181	:	00000000000001001111101000000101	;
182	:	11111111111101001111000011011001	;
183	:	00000000000101000111101011100001	;
184	:	00000000000011101010010010101000	;
185	:	00000000000000010111110000011011	;
186	:	00000000000000111111011001111111	;
187	:	00000000000011100111000000111010	;
188	:	11111111111000010001001101000001	;
189	:	00000000000000010100010100001110	;
190	:	00000000000000101110001100111110	;
191	:	11111111110001000011001011001011	;
192	:	00000000001111110111110011101101	;
193	:	00000000000010011001101011101001	;
194	:	00000000000010111010110001110001	;
195	:	11111111110000000000000000000000	;
196	:	11111111110111010001010011100100	;
197	:	00000000000100100001111111110010	;
198	:	11111111110110011100111000001000	;
199	:	11111111101111010011110000110111	;
200	:	00000000000000101100101110100111	;
201	:	00000000000011001110011100000011	;
202	:	11111111101011010010100010001101	;
203	:	11111111110110101101010000101101	;
204	:	11111111111110010111011110000110	;
205	:	00000000000100001001011010111011	;
206	:	00000000000001101100111101000001	;
207	:	00000000000101100000010000011000	;
208	:	11111111111101011010100001011001	;
209	:	00000000000100111101110110010111	;
210	:	00000000000010110111100000000011	;
211	:	00000000000000110100100101111011	;
212	:	00000000001010110101000010110000	;
213	:	11111111111011001111010000100000	;
214	:	00000000000011111101111100111011	;
215	:	11111111111111110111000001011001	;
216	:	00000000000001001011101100011010	;
217	:	00000000000100001100101100101001	;
218	:	11111111111110011000100111100000	;
219	:	11111111111010111110110111111011	;
220	:	11111111110111101000001111100101	;
221	:	11111111101110111110011101101101	;
222	:	11111111110000011000100100111000	;
223	:	11111111111111110011001010111110	;
224	:	11111111110001111111110010111010	;
225	:	11111111111011110001101010100000	;
226	:	00000000001101001010001000110011	;
227	:	00000000000001001001000100101001	;
228	:	11111111110010100000100100000011	;
229	:	11111111111110100110011000010011	;
230	:	00000000001011011100010111010110	;
231	:	11111111110110010100101011110101	;
232	:	00000000000001100111101101011111	;
233	:	11111111111000110000010101010100	;
234	:	11111111111011001010010101111011	;
235	:	11111111111111111011001011101110	;
236	:	11111111111011010111011100110010	;
237	:	00000000000110101011100111110101	;
238	:	00000000001000001100010010011011	;
239	:	11111111111001110001110111100111	;
240	:	00000000000001110100010100111000	;
241	:	00000000000010001111010111000010	;
242	:	00000000000000010010100000111001	;
243	:	11111111111100010111010110001111	;
244	:	00000000000001011000111101110001	;
245	:	11111111111110011101010111100101	;
246	:	00000000000111000101110101100011	;
247	:	11111111110111110011101101100101	;
248	:	11111111110111110011101101100101	;
249	:	00000000000111010111110110111111	;
250	:	00000000010010010011011101001011	;
251	:	11111111110101001100100110000110	;
252	:	11111111110101010100110010011001	;
253	:	11111111101011111101001000100000	;
254	:	00000000001000000111010111110110	;
255	:	00000000010001101100001000100110	;
256	:	11111111101111001011100100100100	;
257	:	11111111101011100001010001111011	;
258	:	00000000000101100001111001001111	;
259	:	00000000000101001111110111110011	;
260	:	00000000000010000111010101001111	;
261	:	00000000000001001101011111110000	;
262	:	00000000000010110111100000000011	;
263	:	11111111111101101100000011010111	;
264	:	00000000000011011000010001001101	;
265	:	11111111110011011110110100101001	;
266	:	00000000000011010000000100111010	;
267	:	00000000001001011111110110001010	;
268	:	11111111111111001001011100010000	;
269	:	11111111111100100010110100001111	;
270	:	11111111111101101011000100011101	;
271	:	00000000000001001101000000010011	;
272	:	00000000000010111001001000111010	;
273	:	11111111111000001001000000101110	;
274	:	11111111110010101000110000010110	;
275	:	00000000000011000010111110000011	;
276	:	00000000001010011010110101000010	;
277	:	00000000000110110111000101110101	;
278	:	00000000000010100101011110100111	;
279	:	00000000010100100001111111110010	;
280	:	11111111111000110000010101010100	;
281	:	00000000010000111100100111101110	;
282	:	11111111101111001000010010110110	;
283	:	11111111110111101110110011000000	;
284	:	00000000000110011011001111010000	;
285	:	00000000001111110010111001001000	;
286	:	11111111111000011111111100101111	;
287	:	11111111110100101111000110101010	;
288	:	00000000000101001110001110111100	;
289	:	11111111111011000101011011010110	;
290	:	00000000000100011110101110000101	;
291	:	11111111111101101111001010100110	;
292	:	00000000000011001110011100000011	;
293	:	00000000000011111101111100111011	;
294	:	11111111111110011110010110100000	;
295	:	11111111110111111101100010101110	;
296	:	11111111111110001000000100011100	;
297	:	00000000000010111001001000111010	;
298	:	00000000000000011011000010001001	;
299	:	00000000000001100000111111100100	;
300	:	11111111111000110011100111000001	;
301	:	00000000001011000000100000110001	;
302	:	11111111111111100101001000010110	;
303	:	11111111111010000011111001000011	;
304	:	11111111110010111111101100010110	;
305	:	00000000001010101001100100110000	;
306	:	00000000000100100011101000101001	;
307	:	11111111111110101111011001000001	;
308	:	00000000010011010110101000010110	;
309	:	00000000010000010110111100000000	;
310	:	00000000000110000001000001100010	;
311	:	11111111111101110010011100010100	;
312	:	11111111110100001111111110011000	;
313	:	11111111111000111111000101000010	;
314	:	11111111111101101110100000101010	;
315	:	00000000000110001110001000011001	;
316	:	11111111111011110011010011010111	;
317	:	00000000000111010001010011100011	;
318	:	11111111111010011111101111101000	;
319	:	00000000000100000010110111100000	;
320	:	11111111111010101110011111010110	;
321	:	11111111111001000000101101111001	;
322	:	00000000001001011010111011100110	;
323	:	11111111111011011010101110100000	;
324	:	00000000000000000111010111110110	;
325	:	00000000000001101101111011111100	;
326	:	11111111111010011110000110110001	;
327	:	00000000000001111001100100011011	;
328	:	00000000000010000100110111111100	;
329	:	00000000000000011111111100101110	;
330	:	00000000001001110011100000011101	;
331	:	11111111110110001010110110101100	;
332	:	00000000000000010001101100011101	;
333	:	11111111110010101000110000010110	;
334	:	11111111101010010000111111111010	;
335	:	11111111101011000011110010011111	;
336	:	00000000000010110000111100100111	;
337	:	00000000001011111101001000011111	;
338	:	00000000001100011000111111000101	;
339	:	11111111110101111111011000101100	;
340	:	00000000010001101100001000100110	;
341	:	11111111110101000010110000111101	;
342	:	00000000010100100011101000101001	;
343	:	11111111111111111011001110111000	;
344	:	00000000000000011101110100011010	;
345	:	11111111111101110001100111111000	;
346	:	00000000000001101011010100001011	;
347	:	00000000000010101000110000010101	;
348	:	00000000000011000110001111110001	;
349	:	11111111111011010010100010001101	;
350	:	00000000000000000000101101111011	;
351	:	00000000001001001010100011000001	;
352	:	00000000000001001110110011101001	;
353	:	11111111111111100100001001011011	;
354	:	00000000001001000011111111100101	;
355	:	00000000000101001111110111110011	;
356	:	00000000000001010000100110111111	;
357	:	00000000000100101010001100000101	;
358	:	11111111110111100001101100001001	;
359	:	00000000000011010011010110101000	;
360	:	00000000000110101101010000101100	;
361	:	00000000001000000111010111110110	;
362	:	00000000001111100000110111101101	;
363	:	11111111111100100001001011011000	;
364	:	00000000010100111111011111001110	;
365	:	00000000000001100010011101111100	;
366	:	11111111111100100110000101111101	;
367	:	11111111111011100010111010110010	;
368	:	11111111110101011011010101110100	;
369	:	00000000010001111010111000010100	;
370	:	11111111110101000111101011100010	;
371	:	00000000000000000110100110100100	;
372	:	00000000000010110000111100100111	;
373	:	00000000000101001001010100011000	;
374	:	11111111111111000000100110000001	;
375	:	11111111111110010011101100111011	;
376	:	00000000000101101111000000000110	;
377	:	11111111111110101110101111000101	;
378	:	11111111111101000110110111000110	;
379	:	11111111111111100100010011111011	;
380	:	11111111111110100110101101010001	;
381	:	00000000000011111010101011001101	;
382	:	11111111111011001011111110110010	;
383	:	11111111111001111000011011000011	;
384	:	00000000001000011011000010001001	;
385	:	00000000000011010110101000010110	;
386	:	00000000000010001111001100100011	;
387	:	00000000001100010100000100100000	;
388	:	11111111111110111111011100101000	;
389	:	11111111111110101110111001100100	;
390	:	11111111111001101011010100001100	;
391	:	00000000010011100101011000000100	;
392	:	11111111110001010110110101011101	;
393	:	00000000000011011110110100101000	;
394	:	00000000000011100000011101011111	;
395	:	00000000000000100000111011101000	;
396	:	00000000001011111000001101111011	;
397	:	11111111111000000111010111110111	;
398	:	00000000001000001001000000101101	;
399	:	00000000000011110101110000101000	;
400	:	11111111111111100111000110001011	;
401	:	11111111111111111000000001010110	;
402	:	00000000000011000100100110111010	;
403	:	11111111110111111000101000001010	;
404	:	00000000001100001011111000001101	;
405	:	11111111110110110011110100001000	;
406	:	00000000000101011000000100000110	;
407	:	00000000000100010011010000000100	;
408	:	00000000000011010001101101110001	;
409	:	11111111111011010111011100110010	;
410	:	00000000001011111101001000011111	;
411	:	00000000000011010011010110101000	;
412	:	11111111110110011110100000111111	;
413	:	11111111111010000111001010110001	;
414	:	11111111111111110111101000001100	;
415	:	11111111101010111101001111000100	;
416	:	11111111110010010110101110111010	;
417	:	11111111110001011101011000111001	;
418	:	11111111101101000000010011101011	;
419	:	00000000000011010001101101110001	;
420	:	11111111101110101100011100010001	;
421	:	00000000000010010001110100010100	;
422	:	11111111110100011001110011100001	;
423	:	11111111101110101010110011011010	;
424	:	00000000000010110010100101011110	;
425	:	11111111111100001111001001111100	;
426	:	11111111110011100011101111001110	;
427	:	00000000000000111000010111000110	;
428	:	11111111111100101001010111101010	;
429	:	11111111111111010110011000101000	;
430	:	11111111111110110111010000010101	;
431	:	00000000001001011110001101010011	;
432	:	11111111111001001000111010001011	;
433	:	00000000000001111110101001011111	;
434	:	11111111111011100110001100100000	;
435	:	11111111111000101110101100011101	;
436	:	00000000001000100001100101100101	;
437	:	11111111111011000010001001101001	;
438	:	11111111111000110101001111111000	;
439	:	11111111111011000011110010011111	;
440	:	00000000001111001011100100100011	;
441	:	00000000000011000100100110111010	;
442	:	11111111110110011100111000001000	;
443	:	00000000001011101001011110001101	;
444	:	00000000000001100100010001010010	;
445	:	11111111101110010101100000010001	;
446	:	11111111111000001010101001100101	;
447	:	11111111110001010001111010111001	;
448	:	00000000000010110111100000000011	;
449	:	11111111111001010001000110011101	;
450	:	11111111110001110010101100000011	;
451	:	11111111101110001011101011001000	;
452	:	00000000001111100010100000100100	;
453	:	00000000001001011100100100011101	;
454	:	11111111111101000101001110001111	;
455	:	00000000001000000010011101010010	;
456	:	11111111111011110110100101000101	;
457	:	00000000000110000101111100000110	;
458	:	11111111111110011100011000101011	;
459	:	11111111111001101110100101111001	;
460	:	00000000001010000000100111010100	;
461	:	11111111111100111110101010110100	;
462	:	11111111111110111011101011011101	;
463	:	00000000000100000110001001001101	;
464	:	11111111111000110001111110001011	;
465	:	00000000000101111111011000101011	;
466	:	00000000000100100000010110111100	;
467	:	11111111111101111110000100110011	;
468	:	11111111111100001111001001111100	;
469	:	11111111110000101111100000111000	;
470	:	00000000000111000101110101100011	;
471	:	00000000001010000011111001000010	;
472	:	11111111110111110101010110011100	;
473	:	00000000010010010000001011011110	;
474	:	11111111101101111000000000110101	;
475	:	11111111111010111011100110001101	;
476	:	11111111110111010001010011100100	;
477	:	11111111101111000011011000010010	;
478	:	11111111111011000111000100001101	;
479	:	11111111111000100001100101100110	;
480	:	11111111100111111101100010101110	;
481	:	00000000001011011110000000001101	;
482	:	11111111111010111000010100011111	;
483	:	11111111111111100100101000111001	;
484	:	11111111111101001111000011011001	;
485	:	00000000000100111000111011110011	;
486	:	11111111111110111001100011001000	;
487	:	00000000000001110000000100010000	;
488	:	11111111111110100100011010011110	;
489	:	00000000000001101001110101110011	;
490	:	11111111111010001101101110001100	;
491	:	11111111111011000010001001101001	;
492	:	00000000001011001000101101000011	;
493	:	11111111110101000010110000111101	;
494	:	00000000000010110101110111001100	;
495	:	11111111111010000011111001000011	;
496	:	11111111111000100001100101100110	;
497	:	00000000001011101011000111000100	;
498	:	11111111101010011111101111101000	;
499	:	11111111101001000000101101111001	;
500	:	11111111111000000010011101010011	;
501	:	11111111111000000010011101010011	;
502	:	11111111101111011111001110110111	;
503	:	11111111111000010111110000011100	;
504	:	00000000001010010111100011010100	;
505	:	11111111111100100100011101000110	;
506	:	11111111110100101010001100000110	;
507	:	11111111111100101100101001011000	;
508	:	00000000000010110100001110010101	;
509	:	11111111111100100001001011011000	;
510	:	11111111101111000011011000010010	;
511	:	00000000000111011001011111110110	;
512	:	11111111111000101001110001111000	;
513	:	00000000001001100001011111000001	;
514	:	11111111111000011110010011111000	;
515	:	00000000000000111111101110111101	;
516	:	11111111111001110101001001010101	;
517	:	00000000000101011100111110101010	;
518	:	00000000000101001111110111110011	;
519	:	11111111111111111000001010110010	;
520	:	11111111111001001000111010001011	;
521	:	00000000000011000010111110000011	;
522	:	11111111111011010100001011000100	;
523	:	00000000000100010100111000111011	;
524	:	11111111111010110110101011101000	;
525	:	00000000000101100101001010111101	;
526	:	00000000000110101001111110111110	;
527	:	11111111110001111111110010111010	;
528	:	00000000001011001011111110110001	;
529	:	00000000010000000001101000110110	;
530	:	00000000001000110101001111110111	;
531	:	00000000001100001011111000001101	;
532	:	00000000010001111100100001001011	;
533	:	00000000000110001111110001010000	;
534	:	11111111101101110110010111111110	;
535	:	00000000010000100100000010110111	;
536	:	00000000001100101110010010001110	;
537	:	11111111111111101111101001100010	;
538	:	11111111111100001111001001111100	;
539	:	00000000000111100100111101110110	;
540	:	11111111111001100001011111000010	;
541	:	11111111111000110001111110001011	;
542	:	00000000000101001111110111110011	;
543	:	11111111111111101010001101011010	;
544	:	00000000000110101000010110000111	;
545	:	11111111110101010001100000101011	;
546	:	11111111111111011110111001111001	;
547	:	11111111111000011100101011000001	;
548	:	00000000000010111100011010100111	;
549	:	11111111111111111110001110110001	;
550	:	11111111111111111101000010001110	;
551	:	00000000000111001100011000111111	;
552	:	11111111111110011111010101011010	;
553	:	00000000000110000111100100111101	;
554	:	11111111100001100010010011011110	;
555	:	00000000001011101011000111000100	;
556	:	00000000000011111111100101110010	;
557	:	11111111110011001011001010010110	;
558	:	00000000000000011110010011110111	;
559	:	00000000001100011010100111111011	;
560	:	00000000001010011001001100001011	;
561	:	11111111101111000101000001001001	;
562	:	11111111101110111011001011111111	;
563	:	11111111111001100001011111000010	;
564	:	00000000000001110101010011110011	;
565	:	00000000001000010100011110101110	;
566	:	11111111101101000011100101011001	;
567	:	11111111110001011000011110010100	;
568	:	00000000000001001000111010001010	;
569	:	11111111111000110000010101010100	;
570	:	00000000000011010100111111011111	;
571	:	11111111101101110011000110010000	;
572	:	11111111111011001011111110110010	;
573	:	11111111111100010010011011101010	;
574	:	11111111111110110011111110100111	;
575	:	11111111111011100010111010110010	;
576	:	11111111111011010010100010001101	;
577	:	00000000000011110101110000101000	;
578	:	11111111110001001001101110100110	;
579	:	11111111111010001010011100011110	;
580	:	00000000000010111010110001110001	;
581	:	11111111101100000000011010001110	;
582	:	11111111111111110010001110001010	;
583	:	00000000001110010000100101101011	;
584	:	00000000000100011101000101001110	;
585	:	00000000001001001000111010001010	;
586	:	11111111101010010111100011010101	;
587	:	00000000010000010010000001011011	;
588	:	00000000010000110001001001101110	;
589	:	11111111111100011010100111111100	;
590	:	00000000010001010001111010111000	;
591	:	00000000000011000100100110111010	;
592	:	00000000000110101001111110111110	;
593	:	11111111101001010001000110011101	;
594	:	11111111110111001100011001000000	;
595	:	11111111111001000010010110101111	;
596	:	00000000000110001001001101110100	;
597	:	11111111111011010010100010001101	;
598	:	11111111111011110011010011010111	;
599	:	00000000000100100001111111110010	;
600	:	00000000000100101101011101110011	;
601	:	11111111110111010110001110001001	;
602	:	00000000000010001011111010110101	;
603	:	00000000000111111101100010101101	;
604	:	11111111110100101111000110101010	;
605	:	11111111110011000010111110000100	;
606	:	00000000001010110000001000001100	;
607	:	11111111111101100110010100010111	;
608	:	00000000001000100110100000001001	;
609	:	11111111111011011010101110100000	;
610	:	00000000010011011101001011110001	;
611	:	11111111111011000101011011010110	;
612	:	00000000010001011011110000000001	;
613	:	11111111110100000111110010000101	;
614	:	00000000001111011011111101001000	;
615	:	00000000000011100000011101011111	;
616	:	00000000001010101100110110011110	;
617	:	00000000000110101110111001100011	;
618	:	11111111110101110011111010101100	;
619	:	00000000001101011111011011111101	;
620	:	00000000000111110101010110011011	;
621	:	00000000001001001100001011111000	;
622	:	11111111111011000111000100001101	;
623	:	11111111110110010100101011110101	;
624	:	00000000000010110101110111001100	;
625	:	11111111110110111101101001010010	;
626	:	00000000000100100000010110111100	;
627	:	11111111111011100110001100100000	;
628	:	00000000000001000011010101101001	;
629	:	00000000000000011101011111011011	;
630	:	11111111111000010100011110101111	;
631	:	11111111110110101000010110001000	;
632	:	00000000000101011011010101110011	;
633	:	00000000001000100001100101100101	;
634	:	00000000000000011110111101110011	;
635	:	11111111110100000001001110101010	;
636	:	11111111110000101010100110010100	;
637	:	11111111110000111110010000100110	;
638	:	11111111110011100010000110010111	;
639	:	11111111101100110011001100110100	;
640	:	00000000000000010110100111000010	;
641	:	00000000000011110111011001011111	;
642	:	00000000001000001010101001100100	;
643	:	00000000000100110101101010000101	;
644	:	11111111101100000000011010001110	;
645	:	00000000001000100001100101100101	;
646	:	11111111101111000001101111011011	;
647	:	11111111111111110111110010101011	;
648	:	00000000001101011111011011111101	;
649	:	00000000001010010010101000110000	;
650	:	11111111110010011101010010010110	;
651	:	11111111110100111101110110011000	;
652	:	00000000000100001100101100101001	;
653	:	00000000000101100110110011110100	;
654	:	11111111111101110111001100011001	;
655	:	11111111111001110101001001010101	;
656	:	11111111111110100110000011010101	;
657	:	00000000000101011110100111100001	;
658	:	00000000000000111011001001010110	;
659	:	00000000000101000010110000111100	;
660	:	00000000000011000010111110000011	;
661	:	11111111101101101001010001000111	;
662	:	11111111111100001000100110100001	;
663	:	00000000000010010010011110010001	;
664	:	00000000001000010001001101000000	;
665	:	00000000001100110011001100110011	;
666	:	00000000001100111101000001111100	;
667	:	00000000010011101101100100010110	;
668	:	00000000000011011101001011110001	;
669	:	00000000010010111010110001110001	;
670	:	11111111110001010101001100100111	;
671	:	00000000001110111100110100110101	;
672	:	11111111111011001000101101000100	;
673	:	11111111110001100000101010100111	;
674	:	11111111110001000011001011001011	;
675	:	00000000001110101001001010100011	;
676	:	00000000001000001101111011010010	;
677	:	11111111110000000001101000110111	;
678	:	00000000000001000000101101111000	;
679	:	00000000000100101111000110101001	;
680	:	00000000000110101110111001100011	;
681	:	11111111111000010010110101111000	;
682	:	11111111111101100011101100100110	;
683	:	00000000000100111111011111001110	;
684	:	11111111111111010001011110000011	;
685	:	11111111110110110101011100111111	;
686	:	11111111111011000010001001101001	;
687	:	11111111111000010001001101000001	;
688	:	11111111111101100000111010010101	;
689	:	00000000001011000011110010011110	;
690	:	00000000000011110111011001011111	;
691	:	11111111110111000101110101100100	;
692	:	00000000001000111111000101000001	;
693	:	00000000001000001001000000101101	;
694	:	00000000010000000000000000000000	;
695	:	00000000000100100110111010010111	;
696	:	11111111111010011010110101000011	;
697	:	11111111101011000111000100001101	;
698	:	11111111101101010111001111101011	;
699	:	11111111110010100000100100000011	;
700	:	11111111111010001101101110001100	;
701	:	11111111111010010101111010011111	;
702	:	00000000001010101110011111010101	;
703	:	00000000001011001010010101111010	;
704	:	11111111111001000101101000011101	;
705	:	11111111111111111000101011010011	;
706	:	11111111110111100100111101110111	;
707	:	11111111111011111110110001010111	;
708	:	11111111110011010001101101110010	;
709	:	00000000000111000000111010111110	;
710	:	11111111111001101110100101111001	;
711	:	11111111111101110101001110100100	;
712	:	11111111111101110000011110011111	;
713	:	00000000000100100110111010010111	;
714	:	00000000000000101001011100111001	;
715	:	00000000000101011100111110101010	;
716	:	11111111111101101111011111100100	;
717	:	00000000000000101001111100010110	;
718	:	00000000000000100110001011001011	;
719	:	00000000001101000001111100100001	;
720	:	00000000010000001011011110000000	;
721	:	11111111110010011101010010010110	;
722	:	11111111110101011110100111100010	;
723	:	00000000000101000001001000000101	;
724	:	11111111101010011110000110110001	;
725	:	11111111110100111010100100101011	;
726	:	00000000000000110101111001110100	;
727	:	11111111111010100001011000011111	;
728	:	11111111110100001001011010111100	;
729	:	11111111111101101110110101101000	;
730	:	11111111111011001000101101000100	;
731	:	00000000010010000001011011110000	;
732	:	00000000000100001111111110010111	;
733	:	11111111111001110110110010001100	;
734	:	00000000001011010100001011000011	;
735	:	00000000000011110010011110111011	;
736	:	00000000000100101111000110101001	;
737	:	11111111111110101001101010000001	;
738	:	00000000000001111000110000000000	;
739	:	11111111111101100011000010101010	;
740	:	00000000000001010001110000011001	;
741	:	11111111111011001010010101111011	;
742	:	00000000000011010110101000010110	;
743	:	11111111111011101100101111111100	;
744	:	11111111111101001000011111111101	;
745	:	00000000000001100011110001110100	;
746	:	11111111111001110001110111100111	;
747	:	11111111111001010010101111010100	;
748	:	00000000000100110000101111100000	;
749	:	00000000000001101101011100011111	;
750	:	00000000010001011010000111001010	;
751	:	00000000010100100001111111110010	;
752	:	11111111111111011100010010000111	;
753	:	11111111111000111000100001100110	;
754	:	11111111101011111000001101111100	;
755	:	00000000000100000001001110101001	;
756	:	00000000001010000111001010110000	;
757	:	00000000010010111001001000111010	;
758	:	11111111111000000100000110001010	;
759	:	00000000001001111101010101100110	;
760	:	11111111111101110011100101101110	;
761	:	11111111111101011010100001011001	;
762	:	11111111110001001001101110100110	;
763	:	00000000001111011111001110110110	;
764	:	00000000001101000110110111000101	;
765	:	00000000010010110010100101011110	;
766	:	00000000001000000000110100011011	;
767	:	11111111111010111001111101010110	;
768	:	00000000000010001110110111100101	;
769	:	00000000001011100100100011101000	;
770	:	00000000001110000101000111101011	;
771	:	11111111111001110101001001010101	;
772	:	11111111110110100001110010101101	;
773	:	00000000001101100100010110100001	;
774	:	11111111110001100000101010100111	;
775	:	00000000001100111011011001000101	;
776	:	00000000001101100101111111011000	;
777	:	00000000000011111001000010010110	;
778	:	11111111110101000001001000000110	;
779	:	00000000000010010010110011001111	;
780	:	11111111111100110001100011111101	;
781	:	11111111111110110101011100111111	;
782	:	11111111111010000010010000001100	;
783	:	00000000001011100111110101010110	;

END;
