-- Copyright (C) 2020  Intel Corporation. All rights reserved.
-- Your use of Intel Corporation's design tools, logic functions 
-- and other software and tools, and any partner logic 
-- functions, and any output files from any of the foregoing 
-- (including device programming or simulation files), and any 
-- associated documentation or information are expressly subject 
-- to the terms and conditions of the Intel Program License 
-- Subscription Agreement, the Intel Quartus Prime License Agreement,
-- the Intel FPGA IP License Agreement, or other applicable license
-- agreement, including, without limitation, that your use is for
-- the sole purpose of programming logic devices manufactured by
-- Intel and sold by Intel or its authorized distributors.  Please
-- refer to the applicable agreement for further details, at
-- https://fpgasoftware.intel.com/eula.

-- Quartus Prime generated Memory Initialization File (.mif)

WIDTH=32;
DEPTH=784;

ADDRESS_RADIX=UNS;
DATA_RADIX=BIN;

CONTENT BEGIN

0	:	11111111111110110010100000010000	;
1	:	11111111111100100010110100001111	;
2	:	00000000000001100111100011000000	;
3	:	11111111110110000101111100000111	;
4	:	00000000001001001000111010001010	;
5	:	11111111111010100110010011000011	;
6	:	00000000001001111101010101100110	;
7	:	11111111110111010001010011100100	;
8	:	00000000010011010100111111011111	;
9	:	11111111110111100001101100001001	;
10	:	00000000001101110011000110001111	;
11	:	00000000001001111101010101100110	;
12	:	00000000010110001001001101110100	;
13	:	00000000000001000001010111110100	;
14	:	11111111111001001000111010001011	;
15	:	11111111110001011101011000111001	;
16	:	00000000000010111111101100010101	;
17	:	11111111101111001011100100100100	;
18	:	11111111111001111000011011000011	;
19	:	11111111111100000110111101101010	;
20	:	00000000010010100111000111011110	;
21	:	11111111111001111000011011000011	;
22	:	11111111110001100010010011011110	;
23	:	00000000000100101010001100000101	;
24	:	00000000010000000000000000000000	;
25	:	11111111110001000110011100111001	;
26	:	00000000000001000111100110010001	;
27	:	00000000000010111010110001110001	;
28	:	00000000000001000110110001110110	;
29	:	11111111111000010100011110101111	;
30	:	11111111111001101001101011010101	;
31	:	11111111101100100001001011011000	;
32	:	00000000000110111100000000011010	;
33	:	00000000001100110011001100110011	;
34	:	11111111111100100001001011011000	;
35	:	00000000000011000001010101001100	;
36	:	00000000001111001101001101011010	;
37	:	11111111110010110101110111001101	;
38	:	00000000001000110011100111000000	;
39	:	11111111110110100110101101010001	;
40	:	11111111101001111011101100110000	;
41	:	00000000000000101101001110000100	;
42	:	00000000010001011010000111001010	;
43	:	11111111101011111101001000100000	;
44	:	11111111101101010010010101000111	;
45	:	00000000001010111000010100011110	;
46	:	00000000000011000001010101001100	;
47	:	00000000001110000101000111101011	;
48	:	11111111110111111010010001000000	;
49	:	00000000000111011100110001100011	;
50	:	00000000010010111100011010100111	;
51	:	00000000001010000101100001111001	;
52	:	00000000000111110000011011110110	;
53	:	00000000001100100111101110110010	;
54	:	00000000000100100000010110111100	;
55	:	00000000001011000010001001101000	;
56	:	00000000001110000101000111101011	;
57	:	00000000000011100010000110010110	;
58	:	11111111101110101010110011011010	;
59	:	00000000010101100001111001001111	;
60	:	00000000010001010101001100100110	;
61	:	11111111111011100010111010110010	;
62	:	00000000010000110111101101001010	;
63	:	00000000000010100111000111011110	;
64	:	00000000010000010000011000100100	;
65	:	11111111110001000100110100000010	;
66	:	11111111111110100011011011100011	;
67	:	11111111101101101010111001111110	;
68	:	11111111110110100101000100011010	;
69	:	00000000010010011011101001011110	;
70	:	11111111111000011001011001010011	;
71	:	11111111110001010110110101011101	;
72	:	11111111110101011000000100000111	;
73	:	11111111110001001011010111011101	;
74	:	00000000001111011011111101001000	;
75	:	11111111110110010110010100101100	;
76	:	11111111101001001000111010001011	;
77	:	00000000001111011111001110110110	;
78	:	11111111110011011001111010000100	;
79	:	00000000000111001111101010101100	;
80	:	00000000000010110100001110010101	;
81	:	00000000000001011111101011101011	;
82	:	11111111110011010001101101110010	;
83	:	11111111111011111101001000100000	;
84	:	00000000001101100101111111011000	;
85	:	11111111110001000100110100000010	;
86	:	11111111111101000000010011101011	;
87	:	11111111111110010110110100001010	;
88	:	11111111110111111101100010101110	;
89	:	00000000000111010111110110111111	;
90	:	00000000010000110110000100010011	;
91	:	00000000010011101010010010101000	;
92	:	11111111101000101101000011100110	;
93	:	00000000001100100100011101000101	;
94	:	11111111110011010000000100111011	;
95	:	11111111111110000011111110010010	;
96	:	11111111101011100110001100100000	;
97	:	00000000000111100100111101110110	;
98	:	11111111110001010001111010111001	;
99	:	00000000000100010110100001110010	;
100	:	11111111110100100101010001100001	;
101	:	00000000001001010111101001111000	;
102	:	11111111111000001101111011010011	;
103	:	11111111111101111101010000011000	;
104	:	11111111110011101111001101001110	;
105	:	00000000001101101110001011101011	;
106	:	11111111101001110101001001010101	;
107	:	00000000001101011101110011000110	;
108	:	11111111111010001111010111000011	;
109	:	11111111111000111101011100001011	;
110	:	00000000001110001101010011111101	;
111	:	11111111101110110110010001011011	;
112	:	11111111110001001110101001001011	;
113	:	11111111101010111000010100011111	;
114	:	11111111110101111010011110000111	;
115	:	11111111101111100100001001011011	;
116	:	00000000000011011110110100101000	;
117	:	11111111111000001101111011010011	;
118	:	11111111110101110101100011100011	;
119	:	11111111111101011100110100001100	;
120	:	00000000000011100011101111001101	;
121	:	00000000000101001111110111110011	;
122	:	11111111111000111000100001100110	;
123	:	00000000000010010010110011001111	;
124	:	00000000000001011100001111011110	;
125	:	11111111111101101011000100011101	;
126	:	00000000000001001010100011000001	;
127	:	11111111111000101001110001111000	;
128	:	00000000001011010100001011000011	;
129	:	11111111110111011110011010011011	;
130	:	00000000001010000101100001111001	;
131	:	11111111110100011011011100011000	;
132	:	00000000001000011111111100101110	;
133	:	00000000001000100001100101100101	;
134	:	11111111111011001010010101111011	;
135	:	00000000001011011111101001000011	;
136	:	00000000001000110000010101010011	;
137	:	11111111101110110001010110110110	;
138	:	11111111111100010010011011101010	;
139	:	11111111110011001001100001100000	;
140	:	00000000000011100111000000111010	;
141	:	00000000000111000010100011110101	;
142	:	11111111101001110011100000011110	;
143	:	00000000000100001100101100101001	;
144	:	00000000000100000110001001001101	;
145	:	11111111111111100010100000100101	;
146	:	00000000000101111000110101001111	;
147	:	11111111111111100010010110000101	;
148	:	11111111101101001111000011011001	;
149	:	00000000000110111010010111100011	;
150	:	00000000000011100011101111001101	;
151	:	11111111111001001101110100110000	;
152	:	11111111111000000100000110001010	;
153	:	00000000001010011001001100001011	;
154	:	11111111111010001010011100011110	;
155	:	11111111111101000001111100100010	;
156	:	00000000000100010110100001110010	;
157	:	11111111111001001100001011111001	;
158	:	00000000000011000010111110000011	;
159	:	00000000000011010000000100111010	;
160	:	11111111111011111001110110110011	;
161	:	11111111111010110001110001000100	;
162	:	00000000001010000111001010110000	;
163	:	11111111111001010111101001111001	;
164	:	11111111111011000011110010011111	;
165	:	11111111111011111101001000100000	;
166	:	11111111110010001100111001110001	;
167	:	00000000001011100111110101010110	;
168	:	11111111111101001000011111111101	;
169	:	00000000001100001011111000001101	;
170	:	00000000000000011111100111110000	;
171	:	00000000001100100110000101111100	;
172	:	11111111101001010010101111010100	;
173	:	00000000001000000111010111110110	;
174	:	00000000000101101111000000000110	;
175	:	11111111111010010000111111111010	;
176	:	11111111110111000000111010111111	;
177	:	00000000001001001111011101100101	;
178	:	11111111110100000001001110101010	;
179	:	00000000001011100100100011101000	;
180	:	11111111111000000100000110001010	;
181	:	00000000000110000100010011010000	;
182	:	11111111110111110000011011110111	;
183	:	00000000000010001000111110000110	;
184	:	11111111111011001101100111101001	;
185	:	00000000000110111000101110101100	;
186	:	11111111111010001010011100011110	;
187	:	00000000001000110000010101010011	;
188	:	11111111111100011010100111111100	;
189	:	00000000000011100101011000000100	;
190	:	00000000000011110000110110000100	;
191	:	00000000000011011001111010000011	;
192	:	00000000000101100011100010000110	;
193	:	11111111111011110001101010100000	;
194	:	00000000010110100101000100011001	;
195	:	11111111111000111010001010011101	;
196	:	11111111111101001101011010100010	;
197	:	11111111101110011111010101011010	;
198	:	00000000010011100101011000000100	;
199	:	11111111110100011001110011100001	;
200	:	11111111100111011011001000101110	;
201	:	00000000000001111001011001111100	;
202	:	11111111101111100101110010010010	;
203	:	00000000001001101110100101111000	;
204	:	00000000000001100011111100010100	;
205	:	11111111111100010100000100100001	;
206	:	00000000001001100001011111000001	;
207	:	00000000000011101101100100010110	;
208	:	11111111110111101101001010001001	;
209	:	00000000000111100000000011010001	;
210	:	00000000000011001001100001011111	;
211	:	11111111111011110000000001101001	;
212	:	00000000000010011001001100001011	;
213	:	11111111111111001010011011001011	;
214	:	00000000000000001011110100000001	;
215	:	11111111111001110001110111100111	;
216	:	00000000000101010100110010011000	;
217	:	00000000000100011001110011100000	;
218	:	11111111111101001011110001101011	;
219	:	00000000001001100011000111111000	;
220	:	00000000000110011100111000000111	;
221	:	00000000000011000100100110111010	;
222	:	11111111110010011000010111110001	;
223	:	11111111101011111000001101111100	;
224	:	00000000000001110110011101001101	;
225	:	11111111111010101100110110011111	;
226	:	00000000010011011000010001001101	;
227	:	00000000000001000100101001100010	;
228	:	00000000000011110111011001011111	;
229	:	11111111111011001101100111101001	;
230	:	00000000000110001001001101110100	;
231	:	11111111111101010011111101111101	;
232	:	11111111111101000001111100100010	;
233	:	11111111111101111101010000011000	;
234	:	11111111110111100000000011010010	;
235	:	00000000000011110111011001011111	;
236	:	11111111111101001000011111111101	;
237	:	11111111111101000001111100100010	;
238	:	11111111111101011000111000100010	;
239	:	00000000000010110100001110010101	;
240	:	11111111111001010100011000001011	;
241	:	11111111111111010110111000000101	;
242	:	00000000000111000100001100101100	;
243	:	00000000000000011001000100010100	;
244	:	11111111111111011111011001010110	;
245	:	11111111111111010111000010100100	;
246	:	11111111111111000100101100001010	;
247	:	11111111111101111111101101101010	;
248	:	11111111111101010101100110110100	;
249	:	00000000001111101111100111011011	;
250	:	11111111110011111001000010010111	;
251	:	00000000010010100101011110100111	;
252	:	00000000000111010100100101010001	;
253	:	11111111101111000101000001001001	;
254	:	11111111111010110000001000001101	;
255	:	00000000000100111100001101100001	;
256	:	11111111101011100100100011101001	;
257	:	11111111111101011010100001011001	;
258	:	11111111111100100111101110110011	;
259	:	00000000000001000110010010011001	;
260	:	00000000000000111000010111000110	;
261	:	00000000000101010110011011001111	;
262	:	00000000000000000001101001111001	;
263	:	00000000001100111000000111010111	;
264	:	11111111111011100001010001111011	;
265	:	00000000000101011000000100000110	;
266	:	11111111110010111001001000111011	;
267	:	11111111111111110010111000000110	;
268	:	11111111111011111101001000100000	;
269	:	00000000000101111010011110000110	;
270	:	11111111110001011000011110010100	;
271	:	00000000000010111110000011011110	;
272	:	00000000000100100101010001100000	;
273	:	11111111111100011101111001101010	;
274	:	00000000001101001111000011011000	;
275	:	00000000001001000101101000011100	;
276	:	00000000010111000101110101100011	;
277	:	00000000001100100100011101000101	;
278	:	00000000000100000100100000010110	;
279	:	11111111101101100001000100110101	;
280	:	11111111110110100000001001110110	;
281	:	11111111111010010010101000110001	;
282	:	11111111110100000100100000010111	;
283	:	00000000001011101011000111000100	;
284	:	11111111110111101000001111100101	;
285	:	11111111111001111101010101100111	;
286	:	00000000000110111000101110101100	;
287	:	00000000000011001001100001011111	;
288	:	00000000000110011110100000111110	;
289	:	00000000000101110111001100011000	;
290	:	11111111111101110010011100010100	;
291	:	11111111110111100100111101110111	;
292	:	00000000001010100111111011111001	;
293	:	11111111111110111001011000101001	;
294	:	00000000000101001110001110111100	;
295	:	00000000000001111010011000110111	;
296	:	11111111110100111100001101100010	;
297	:	11111111111101011010100001011001	;
298	:	11111111111111011001110100110101	;
299	:	11111111110110100001110010101101	;
300	:	00000000000001011110110111010000	;
301	:	11111111110100110101101010000110	;
302	:	00000000000101100000010000011000	;
303	:	11111111111011111011011111101010	;
304	:	00000000001101100111101000001111	;
305	:	00000000001111100100001001011010	;
306	:	00000000010001100010010011011101	;
307	:	11111111111100000101010100110011	;
308	:	00000000000000111010011111011010	;
309	:	00000000010001000100110100000001	;
310	:	11111111101110100010100111001000	;
311	:	00000000000101111010011110000110	;
312	:	00000000001101001111000011011000	;
313	:	11111111110011011110110100101001	;
314	:	11111111110101110111001100011001	;
315	:	00000000000000111101110001001000	;
316	:	11111111110110010011000010111111	;
317	:	11111111111101000001111100100010	;
318	:	00000000000110001100011111100010	;
319	:	00000000001010000011111001000010	;
320	:	11111111111000010111110000011100	;
321	:	00000000000110111000101110101100	;
322	:	11111111111100011000111111000110	;
323	:	11111111111100111001110000001111	;
324	:	00000000001010001101101110001011	;
325	:	11111111110011001001100001100000	;
326	:	00000000001001010110000001000001	;
327	:	11111111110110010110010100101100	;
328	:	11111111110000000110100011011100	;
329	:	11111111110111000111011110011011	;
330	:	11111111111111100010000001000111	;
331	:	11111111110000001110101111101110	;
332	:	00000000001001110011100000011101	;
333	:	00000000001101010011111101111100	;
334	:	11111111101100011101111001101010	;
335	:	00000000001100111011011001000101	;
336	:	00000000000100111100001101100001	;
337	:	00000000000110111111010010000111	;
338	:	00000000000001110011111111111010	;
339	:	00000000001001101100111101000001	;
340	:	00000000001110000001110101111101	;
341	:	11111111110101010001100000101011	;
342	:	00000000010001110010101100000010	;
343	:	00000000000010000110010110010100	;
344	:	00000000000111011110011010011010	;
345	:	11111111111111000111010011111100	;
346	:	00000000000010110111100000000011	;
347	:	11111111111100110001100011111101	;
348	:	00000000000101010011001001100001	;
349	:	00000000000101011110100111100001	;
350	:	11111111110101101111000000000111	;
351	:	00000000000101000100011001110011	;
352	:	11111111111110111000000100110001	;
353	:	11111111111000000100000110001010	;
354	:	00000000000001011011111010100000	;
355	:	11111111110100110101101010000110	;
356	:	00000000000110000111100100111101	;
357	:	11111111110111111010010001000000	;
358	:	11111111100100100110111010011000	;
359	:	11111111011111001110110110010010	;
360	:	11111111110011100011101111001110	;
361	:	11111111101100110011001100110100	;
362	:	00000000001000011011000010001001	;
363	:	00000000001100000011101011111011	;
364	:	00000000010100111000111011110011	;
365	:	00000000001110111100110100110101	;
366	:	11111111101110000101000111101100	;
367	:	11111111110000111010111110111000	;
368	:	11111111111100001000100110100001	;
369	:	00000000010010000111111111001011	;
370	:	11111111110111100000000011010010	;
371	:	11111111110111101011100001010010	;
372	:	00000000000111011001011111110110	;
373	:	11111111111111011010011110110001	;
374	:	00000000000000000111011011000000	;
375	:	00000000000001001001001111001000	;
376	:	00000000000001011100000100111111	;
377	:	00000000000100101111000110101001	;
378	:	11111111111110111111010010001000	;
379	:	00000000000000011000001111111001	;
380	:	11111111110100110100000001001111	;
381	:	00000000000011000010111110000011	;
382	:	00000000000001010110100000011110	;
383	:	11111111111101110010111011110001	;
384	:	00000000000101101011101110011000	;
385	:	11111111110111111111001011100101	;
386	:	11111111101111111001011100100101	;
387	:	00000000000010110111100000000011	;
388	:	11111111100100110111010010111101	;
389	:	00000000010001011111000001101111	;
390	:	00000000000011001100110011001100	;
391	:	00000000001110111110011101101100	;
392	:	00000000010001010110110101011100	;
393	:	11111111110101111111011000101100	;
394	:	11111111110011010001101101110010	;
395	:	00000000001101101110001011101011	;
396	:	11111111111001011111110110001011	;
397	:	11111111110111010001010011100100	;
398	:	00000000000101111101101111110100	;
399	:	00000000001101000000010011101010	;
400	:	11111111111011011110000000001110	;
401	:	11111111111010001000110011101000	;
402	:	00000000001000001010101001100100	;
403	:	00000000000011000110001111110001	;
404	:	11111111111001111000011011000011	;
405	:	00000000000111001100011000111111	;
406	:	11111111110101010110011011010000	;
407	:	00000000000010100101011110100111	;
408	:	11111111111111001001011100010000	;
409	:	00000000000100000110001001001101	;
410	:	11111111110010110101110111001101	;
411	:	00000000000011001011001010010101	;
412	:	00000000000100010110100001110010	;
413	:	00000000000111101001111000011011	;
414	:	00000000000001001010000011100100	;
415	:	11111111101101011111011011111110	;
416	:	00000000001110100100001111111110	;
417	:	11111111110100111100001101100010	;
418	:	00000000001111001110110110010001	;
419	:	00000000001010100110010011000010	;
420	:	00000000001000011100101011000000	;
421	:	11111111111000010111110000011100	;
422	:	11111111111010011010110101000011	;
423	:	11111111110011110010011110111100	;
424	:	11111111111111101000111001100001	;
425	:	00000000000101110101100011100010	;
426	:	11111111110000110100011011011101	;
427	:	11111111111011011001000101101001	;
428	:	11111111111000111000100001100110	;
429	:	00000000001101000000010011101010	;
430	:	11111111111000101110101100011101	;
431	:	00000000000010100011100000110010	;
432	:	00000000000001000110010010011001	;
433	:	11111111111110010101100000010001	;
434	:	00000000000000110000111111001111	;
435	:	11111111111100111011011001000110	;
436	:	00000000000001001011100001111011	;
437	:	11111111111000111000100001100110	;
438	:	00000000000001011010000111001010	;
439	:	00000000000000100101110110001101	;
440	:	11111111101101111011010010100011	;
441	:	11111111110011010001101101110010	;
442	:	00000000001010111011100110001100	;
443	:	00000000000100101010001100000101	;
444	:	11111111101100010101101101011000	;
445	:	11111111101111011101100110000000	;
446	:	11111111110011010011010110101001	;
447	:	11111111111011000011110010011111	;
448	:	00000000000110010110010100101011	;
449	:	00000000001011111000001101111011	;
450	:	00000000010010110100001110010101	;
451	:	00000000001101110011000110001111	;
452	:	11111111110100111000111011110100	;
453	:	00000000000100101111000110101001	;
454	:	11111111110101111101101111110101	;
455	:	00000000000010011010010101100101	;
456	:	11111111110111100001101100001001	;
457	:	00000000000111101011100001010001	;
458	:	11111111111000011001011001010011	;
459	:	00000000000101110101100011100010	;
460	:	00000000000010000000110001110011	;
461	:	11111111110110101101010000101101	;
462	:	00000000000110100000001001110101	;
463	:	11111111110010101111010011110001	;
464	:	00000000000001001100000001011001	;
465	:	11111111110100100110111010011000	;
466	:	00000000000101101111000000000110	;
467	:	00000000000011010110101000010110	;
468	:	00000000001000110000010101010011	;
469	:	00000000001001001000111010001010	;
470	:	11111111110101011001101100111110	;
471	:	11111111111001011010111011100111	;
472	:	00000000000111001111101010101100	;
473	:	00000000001001111110111110011101	;
474	:	11111111111001000101101000011101	;
475	:	00000000001000101110101100011100	;
476	:	00000000001110011000110001111110	;
477	:	00000000001100011111100010100000	;
478	:	00000000000011101010010010101000	;
479	:	11111111111011111011011111101010	;
480	:	11111111111101000110110111000110	;
481	:	11111111111111110101101001010100	;
482	:	00000000000010101000110000010101	;
483	:	00000000000010100000100100000010	;
484	:	11111111111001000010010110101111	;
485	:	11111111110111000010100011110110	;
486	:	11111111111100010000110010110011	;
487	:	11111111111000010111110000011100	;
488	:	11111111111110101001110100100000	;
489	:	11111111111000101001110001111000	;
490	:	00000000000010001101111000101010	;
491	:	11111111111110001101111101111011	;
492	:	00000000000110011011001111010000	;
493	:	00000000001000100011001110011100	;
494	:	00000000000010001010000111011111	;
495	:	11111111110100111101110110011000	;
496	:	00000000000001000010100001001101	;
497	:	00000000001010011110000110110000	;
498	:	11111111111110010111010011100111	;
499	:	00000000000110001100011111100010	;
500	:	00000000010000110110000100010011	;
501	:	11111111101101100101111111011001	;
502	:	11111111101110010000100101101100	;
503	:	00000000010010111010110001110001	;
504	:	00000000000000010010100000111001	;
505	:	00000000001000001111100100001001	;
506	:	00000000001101110011000110001111	;
507	:	11111111110011101111001101001110	;
508	:	11111111111110001110001000011010	;
509	:	00000000000000111101100110101001	;
510	:	00000000000100101111000110101001	;
511	:	11111111111110111000100100001110	;
512	:	00000000000111100000000011010001	;
513	:	11111111111100110011001100110100	;
514	:	11111111111011001011111110110010	;
515	:	11111111111101110100111001100110	;
516	:	11111111111111110111011101101101	;
517	:	11111111111001001100001011111001	;
518	:	00000000000100100101010001100000	;
519	:	11111111111001000111010001010100	;
520	:	11111111111010011010110101000011	;
521	:	11111111111000101011011010101111	;
522	:	11111111111101010000101100010000	;
523	:	00000000000101000110000010101010	;
524	:	11111111111100100111101110110011	;
525	:	11111111110101111010011110000111	;
526	:	00000000000110100101000100011001	;
527	:	00000000000101111000110101001111	;
528	:	11111111111111111100100010110001	;
529	:	11111111101011010100001011000100	;
530	:	00000000000111010100100101010001	;
531	:	00000000000101000111101011100001	;
532	:	11111111110000100000110001001010	;
533	:	00000000000000110011111011111111	;
534	:	11111111110001011011110000000010	;
535	:	11111111101110011111010101011010	;
536	:	00000000001011010111011100110001	;
537	:	11111111111100001010001111011000	;
538	:	00000000000110110111000101110101	;
539	:	00000000000001001111001000100111	;
540	:	11111111111101011010100001011001	;
541	:	00000000000011011011100010111010	;
542	:	11111111111010110110101011101000	;
543	:	00000000000110110111000101110101	;
544	:	11111111111100111110101010110100	;
545	:	00000000001000110011100111000000	;
546	:	11111111111100011101111001101010	;
547	:	00000000000000010011110100110001	;
548	:	00000000001100100111101110110010	;
549	:	11111111111100010010011011101010	;
550	:	00000000000110010011000010111110	;
551	:	00000000000010000111011111101110	;
552	:	00000000000010010010010011110010	;
553	:	00000000000010110111100000000011	;
554	:	11111111111001011100100100011110	;
555	:	00000000001000000111010111110110	;
556	:	11111111101100001111001001111100	;
557	:	00000000001110000011011110110100	;
558	:	11111111110011100000011101100000	;
559	:	00000000001101101100100010110100	;
560	:	11111111110101010011001001100010	;
561	:	11111111111000110001111110001011	;
562	:	00000000000110111100000000011010	;
563	:	11111111111001000101101000011101	;
564	:	11111111110111110000011011110111	;
565	:	00000000010001001110101001001010	;
566	:	11111111111001110110110010001100	;
567	:	11111111111011001011111110110010	;
568	:	11111111111011111101001000100000	;
569	:	00000000000001110001110111100110	;
570	:	00000000000101011110100111100001	;
571	:	11111111111110111101111110010000	;
572	:	00000000000000101100111001000110	;
573	:	11111111110110101000010110001000	;
574	:	00000000001000110110111000101110	;
575	:	11111111111000110011100111000001	;
576	:	11111111111110011010011010110110	;
577	:	00000000000000111110110000000010	;
578	:	11111111111101000000010011101011	;
579	:	11111111111011011001000101101001	;
580	:	11111111111011011110000000001110	;
581	:	00000000000000100001010000100110	;
582	:	11111111110001010101001100100111	;
583	:	00000000001010110110101011100111	;
584	:	11111111110110010100101011110101	;
585	:	11111111101111111011000101011100	;
586	:	00000000010100001100101100101001	;
587	:	00000000000011101011111011011111	;
588	:	00000000001010110110101011100111	;
589	:	00000000001111111011000101011011	;
590	:	11111111110111000101110101100100	;
591	:	00000000001010100011000001010101	;
592	:	11111111111110011000110001111111	;
593	:	11111111110101001001010100011001	;
594	:	11111111111100011101111001101010	;
595	:	11111111111111110100101110100110	;
596	:	00000000001100110100110101101010	;
597	:	00000000000100100000010110111100	;
598	:	11111111111000110110111000101111	;
599	:	00000000000101000110000010101010	;
600	:	00000000000011100010000110010110	;
601	:	00000000000001100011100111010101	;
602	:	11111111111010011110000110110001	;
603	:	00000000000011000110001111110001	;
604	:	11111111111101010000101100010000	;
605	:	00000000000010000010101111101000	;
606	:	11111111111100101110010010001111	;
607	:	00000000000110110000100010011010	;
608	:	00000000001001011001010010101111	;
609	:	00000000001001111010000011111001	;
610	:	00000000001101000000010011101010	;
611	:	11111111111010100011000001010110	;
612	:	00000000001001010001000110011100	;
613	:	00000000001111110111110011101101	;
614	:	11111111110110101011100111110110	;
615	:	11111111111101110100001111101010	;
616	:	11111111110110011001100110011010	;
617	:	11111111110110101001111110111111	;
618	:	11111111101010111000010100011111	;
619	:	00000000000011100010000110010110	;
620	:	00000000000010101111010011110000	;
621	:	11111111111011010000111001010111	;
622	:	00000000000100100001111111110010	;
623	:	00000000000100000110001001001101	;
624	:	11111111111001100001011111000010	;
625	:	11111111111010011100011101111010	;
626	:	00000000000111011011001000101101	;
627	:	11111111111001000011111111100110	;
628	:	00000000001001001111011101100101	;
629	:	11111111111001111011101100110000	;
630	:	00000000000101001001010100011000	;
631	:	00000000000010110101110111001100	;
632	:	11111111111101011101001001001010	;
633	:	00000000000101110011111010101011	;
634	:	00000000000010100111000111011110	;
635	:	11111111110101100011100010000111	;
636	:	00000000001000111000100001100101	;
637	:	11111111111111000000011011100010	;
638	:	11111111110001101000110110111001	;
639	:	00000000010010010110101110111001	;
640	:	11111111110110000101111100000111	;
641	:	00000000001011011001000101101000	;
642	:	00000000001110110001010110110101	;
643	:	11111111110001001101000000010100	;
644	:	00000000010000101100001111001001	;
645	:	00000000001011110100111100001101	;
646	:	11111111111001011010111011100111	;
647	:	11111111111100011100010000110011	;
648	:	11111111110010010011011101001100	;
649	:	11111111111111110011011110111001	;
650	:	11111111111100010000110010110011	;
651	:	00000000001100000101010100110010	;
652	:	11111111110001100111001110000010	;
653	:	00000000001011000111000100001100	;
654	:	11111111111101000110110111000110	;
655	:	00000000000101011011010101110011	;
656	:	11111111110100101000100011001111	;
657	:	00000000001101110110010111111101	;
658	:	11111111110101101111000000000111	;
659	:	00000000000000111100001000010001	;
660	:	11111111111011110011010011010111	;
661	:	11111111111111010011111011010110	;
662	:	00000000000010101111010011110000	;
663	:	11111111101101001000011111111101	;
664	:	00000000001010111110110111111010	;
665	:	00000000001100101111111011000101	;
666	:	11111111101110100010100111001000	;
667	:	00000000000001001011000010011110	;
668	:	11111111110111010110001110001001	;
669	:	11111111110110010110010100101100	;
670	:	00000000001001111101010101100110	;
671	:	00000000001011000010001001101000	;
672	:	11111111110111101110110011000000	;
673	:	11111111110100000100100000010111	;
674	:	00000000001110000011011110110100	;
675	:	11111111111001101001101011010101	;
676	:	00000000010011010110101000010110	;
677	:	00000000010010001100111001110000	;
678	:	11111111111100110100110101101011	;
679	:	11111111110001000001100010010100	;
680	:	00000000010110010001011010000111	;
681	:	11111111110111010100100101010010	;
682	:	00000000000000000011000011000010	;
683	:	11111111111110111001001110001010	;
684	:	00000000000111011001011111110110	;
685	:	11111111110111011001011111110111	;
686	:	00000000001110010111001001000111	;
687	:	00000000000000001000010000011110	;
688	:	11111111111010111001111101010110	;
689	:	00000000001001001100001011111000	;
690	:	11111111110110110010001011010001	;
691	:	00000000001010110101000010110000	;
692	:	11111111110001111110001010000011	;
693	:	11111111111101111110100100010000	;
694	:	00000000000101111000110101001111	;
695	:	11111111110100111100001101100010	;
696	:	11111111101110001010000010010001	;
697	:	11111111110100001100101100101010	;
698	:	11111111110101101011101110011001	;
699	:	11111111111100101100101001011000	;
700	:	00000000010001010101001100100110	;
701	:	00000000010011101010010010101000	;
702	:	00000000000011011101001011110001	;
703	:	11111111111001001000111010001011	;
704	:	11111111101011010100001011000100	;
705	:	11111111101010111011100110001101	;
706	:	11111111110010000011000100100111	;
707	:	11111111110001100101100101001011	;
708	:	11111111110101101011101110011001	;
709	:	11111111110111000100001100101101	;
710	:	00000000001110101010110011011001	;
711	:	11111111110001111110001010000011	;
712	:	00000000001001000000101101111000	;
713	:	11111111111100111101000001111101	;
714	:	11111111110101100011100010000111	;
715	:	00000000000111101101001010001000	;
716	:	11111111111011000101011011010110	;
717	:	00000000000001101110110000010111	;
718	:	00000000000011101111001101001101	;
719	:	00000000000001100101101111101010	;
720	:	11111111111000000010011101010011	;
721	:	11111111110111010010111100011011	;
722	:	00000000001000101000001001000000	;
723	:	00000000000110010001011010000111	;
724	:	00000000001011110000000001101000	;
725	:	00000000010110000001000001100010	;
726	:	11111111111000100100110111010011	;
727	:	00000000000100001001011010111011	;
728	:	00000000000110100110101101010000	;
729	:	00000000010000100000110001001001	;
730	:	11111111110011010100111111100000	;
731	:	11111111110100101010001100000110	;
732	:	00000000000110000100010011010000	;
733	:	11111111110000001110101111101110	;
734	:	00000000001111101001000011111111	;
735	:	00000000001010011010110101000010	;
736	:	00000000001110100010100111000111	;
737	:	00000000000011000111111000101000	;
738	:	00000000000001011101111000010101	;
739	:	00000000000101000010110000111100	;
740	:	11111111111110011010100101010101	;
741	:	00000000001011000010001001101000	;
742	:	11111111111010110001110001000100	;
743	:	00000000000110001010110110101011	;
744	:	00000000000110011001100110011001	;
745	:	11111111111010000011111001000011	;
746	:	11111111111010011111101111101000	;
747	:	00000000001010000101100001111001	;
748	:	00000000000010101111010011110000	;
749	:	00000000010000000000000000000000	;
750	:	11111111111110101011001000011001	;
751	:	11111111110111111101100010101110	;
752	:	00000000000100000010110111100000	;
753	:	11111111111111100011011111011111	;
754	:	11111111101110011010011010110110	;
755	:	00000000000111001100011000111111	;
756	:	00000000000111110000011011110110	;
757	:	11111111111111110011111100010000	;
758	:	00000000000110100000001001110101	;
759	:	00000000000000010000100011000011	;
760	:	11111111111000100110100000001010	;
761	:	11111111110011010001101101110010	;
762	:	00000000001111101100010101101101	;
763	:	11111111110100001100101100101010	;
764	:	11111111101001101100111101000010	;
765	:	00000000000111010100100101010001	;
766	:	00000000001010101110011111010101	;
767	:	00000000001110001000011001011001	;
768	:	00000000001110000110110000100010	;
769	:	11111111110010000110010110010101	;
770	:	00000000010011000001010101001100	;
771	:	00000000001100111000000111010111	;
772	:	11111111111010110001110001000100	;
773	:	00000000000000011001011001010010	;
774	:	00000000000100011110101110000101	;
775	:	00000000001001110011100000011101	;
776	:	11111111101111001000010010110110	;
777	:	00000000000100110010011000010111	;
778	:	00000000001010101110011111010101	;
779	:	11111111110001111010111000010101	;
780	:	00000000000110110101011100111110	;
781	:	11111111111011101011000111000101	;
782	:	11111111111111011011001000101110	;
783	:	00000000000000001001001001000110	;			

END;
