-- Copyright (C) 2020  Intel Corporation. All rights reserved.
-- Your use of Intel Corporation's design tools, logic functions 
-- and other software and tools, and any partner logic 
-- functions, and any output files from any of the foregoing 
-- (including device programming or simulation files), and any 
-- associated documentation or information are expressly subject 
-- to the terms and conditions of the Intel Program License 
-- Subscription Agreement, the Intel Quartus Prime License Agreement,
-- the Intel FPGA IP License Agreement, or other applicable license
-- agreement, including, without limitation, that your use is for
-- the sole purpose of programming logic devices manufactured by
-- Intel and sold by Intel or its authorized distributors.  Please
-- refer to the applicable agreement for further details, at
-- https://fpgasoftware.intel.com/eula.

-- Quartus Prime generated Memory Initialization File (.mif)

WIDTH=32;
DEPTH=784;

ADDRESS_RADIX=UNS;
DATA_RADIX=BIN;

CONTENT BEGIN

0	:	00000000000000001101001110001100	;
1	:	00000000001100010010011011101001	;
2	:	11111111111010111110110111111011	;
3	:	11111111110010011000010111110001	;
4	:	00000000001011100111110101010110	;
5	:	11111111110101010011001001100010	;
6	:	00000000010001011000011110010011	;
7	:	11111111101110110001010110110110	;
8	:	00000000000010101100000010000011	;
9	:	11111111111110010100000001111001	;
10	:	11111111110011101010010010101001	;
11	:	00000000010011011101001011110001	;
12	:	00000000000110111111010010000111	;
13	:	11111111101101110100101111000111	;
14	:	11111111101110000011011110110101	;
15	:	00000000010000100111010100100101	;
16	:	11111111111101001111000011011001	;
17	:	00000000001011100010111010110001	;
18	:	11111111111011101001011110001110	;
19	:	11111111110010001001101000000011	;
20	:	00000000010011011011100010111010	;
21	:	11111111110000111110010000100110	;
22	:	00000000010101000110000010101010	;
23	:	11111111111111101010100010011000	;
24	:	00000000010100101011110100111100	;
25	:	11111111101111100100001001011011	;
26	:	00000000000110100001110010101100	;
27	:	00000000000001000110011100111000	;
28	:	11111111111110111101101001010010	;
29	:	00000000001100000011101011111011	;
30	:	11111111110010101000110000010110	;
31	:	00000000001001010111101001111000	;
32	:	11111111110110000001000001100011	;
33	:	00000000000010011011101001011110	;
34	:	11111111111000100100110111010011	;
35	:	00000000001011001010010101111010	;
36	:	11111111110101001100100110000110	;
37	:	00000000001100000101010100110010	;
38	:	00000000010011010110101000010110	;
39	:	11111111111110010011000010111111	;
40	:	11111111101010101011001101101000	;
41	:	11111111111001010100011000001011	;
42	:	00000000000101001100100110000101	;
43	:	00000000000000111010010100111011	;
44	:	00000000010100011110101110000101	;
45	:	11111111111110110000100010011011	;
46	:	11111111111011010000111001010111	;
47	:	11111111110111101000001111100101	;
48	:	11111111110010101010011001001101	;
49	:	00000000000101001100100110000101	;
50	:	00000000000100111111011111001110	;
51	:	11111111101101001010001000110100	;
52	:	00000000000100100001111111110010	;
53	:	00000000010011110100000111110010	;
54	:	11111111101010000101100001111010	;
55	:	00000000010100010001100111001110	;
56	:	00000000001110010010001110100010	;
57	:	00000000000110011001100110011001	;
58	:	11111111101101011111011011111110	;
59	:	11111111101011100001010001111011	;
60	:	00000000001111000011011000010001	;
61	:	00000000010011000100100110111010	;
62	:	11111111111111100010100000100101	;
63	:	00000000000001111010101101110101	;
64	:	00000000000001110100010100111000	;
65	:	00000000000010011010101010100011	;
66	:	11111111111111100110010001110000	;
67	:	11111111101110001010000010010001	;
68	:	11111111101011000111000100001101	;
69	:	11111111101110010101100000010001	;
70	:	00000000000100001001011010111011	;
71	:	11111111110110100011011011100011	;
72	:	00000000001111101001000011111111	;
73	:	00000000001110000110110000100010	;
74	:	11111111111001110101001001010101	;
75	:	00000000001011111011011111101001	;
76	:	11111111101101100101111111011001	;
77	:	11111111110011001100110011001101	;
78	:	00000000001011000000100000110001	;
79	:	00000000001001000010010110101110	;
80	:	11111111111001100100110000110000	;
81	:	00000000001100000110111101101001	;
82	:	11111111110000101100001111001010	;
83	:	11111111101010001100000101010101	;
84	:	00000000010001000100110100000001	;
85	:	11111111101101101110001011101100	;
86	:	00000000001000010110000111100100	;
87	:	00000000001010011001001100001011	;
88	:	00000000001100010000110010110010	;
89	:	11111111111100110110011110100001	;
90	:	11111111111011100010111010110010	;
91	:	00000000001011101100101111111011	;
92	:	11111111111100100110000101111101	;
93	:	00000000001101011101110011000110	;
94	:	11111111101110111100110100110110	;
95	:	00000000001101101001010001000110	;
96	:	00000000000001101111001111110101	;
97	:	11111111111010001111010111000011	;
98	:	11111111101100110001100011111101	;
99	:	11111111111110110011001010001100	;
100	:	11111111101111000011011000010010	;
101	:	11111111111000101110101100011101	;
102	:	11111111110101111111011000101100	;
103	:	11111111111010101011001101101000	;
104	:	00000000000011101010010010101000	;
105	:	11111111111110010111110011000100	;
106	:	00000000001110000101000111101011	;
107	:	00000000010010000011000100100110	;
108	:	11111111110001100000101010100111	;
109	:	11111111101111010101011001101101	;
110	:	00000000001000110011100111000000	;
111	:	11111111110101101111000000000111	;
112	:	11111111110011000100100110111011	;
113	:	11111111110001111001001111011110	;
114	:	00000000001001100011000111111000	;
115	:	00000000001010001010011100011101	;
116	:	11111111110000000100111010100101	;
117	:	00000000001111000011011000010001	;
118	:	00000000010001100101100101001010	;
119	:	00000000000000111011110011010011	;
120	:	00000000000100111100001101100001	;
121	:	11111111111110110010110101001110	;
122	:	11111111111101001111000011011001	;
123	:	11111111111010110011011001111011	;
124	:	00000000000000001001110111001111	;
125	:	00000000000010111110000011011110	;
126	:	11111111111011111110110001010111	;
127	:	00000000000011011001111010000011	;
128	:	11111111111100111000000111011000	;
129	:	00000000000000010001110110111100	;
130	:	11111111111111001001011100010000	;
131	:	11111111111101110011111010101100	;
132	:	00000000000000001000001110011000	;
133	:	11111111111101100011010111101000	;
134	:	11111111101101010010010101000111	;
135	:	00000000001100011101111001101001	;
136	:	00000000001000110011100111000000	;
137	:	11111111101011001010010101111011	;
138	:	00000000000101001100100110000101	;
139	:	00000000000000101101011000100011	;
140	:	00000000010011110111011001011111	;
141	:	11111111110101100000010000011001	;
142	:	11111111110011111010101011001110	;
143	:	00000000000110100110101101010000	;
144	:	00000000001101011000111000100001	;
145	:	00000000000000110011000111100011	;
146	:	11111111110111010100100101010010	;
147	:	11111111110110111000101110101101	;
148	:	11111111111010010100010001101000	;
149	:	11111111111001100011000111111001	;
150	:	11111111111010101011001101101000	;
151	:	00000000000011111111100101110010	;
152	:	11111111111011111101001000100000	;
153	:	00000000000000101000011101111110	;
154	:	00000000000000100011001110011100	;
155	:	11111111111110001100111111000000	;
156	:	00000000000000110101000101011000	;
157	:	00000000000001001011110110111010	;
158	:	11111111111101111000001011010100	;
159	:	00000000000000001001110001111111	;
160	:	11111111111101000101001110001111	;
161	:	00000000000001110100011111011000	;
162	:	11111111111000011111111100101111	;
163	:	00000000001000000101101111000000	;
164	:	11111111110110111111010010001000	;
165	:	11111111111101101110101011001001	;
166	:	11111111110010101111010011110001	;
167	:	11111111110011000001010101001101	;
168	:	00000000000101000110000010101010	;
169	:	00000000000000100001100101100101	;
170	:	00000000001011000011110010011110	;
171	:	11111111110100001111111110011000	;
172	:	00000000001011101110011000110001	;
173	:	11111111110100000111110010000101	;
174	:	11111111111101101001110000100100	;
175	:	00000000000011001011001010010101	;
176	:	00000000001001111101010101100110	;
177	:	00000000000101001111110111110011	;
178	:	11111111111100100001001011011000	;
179	:	00000000000100011001110011100000	;
180	:	11111111111010001111010111000011	;
181	:	00000000001000000111010111110110	;
182	:	11111111111000000010011101010011	;
183	:	00000000000101001001010100011000	;
184	:	00000000000000100111011111000100	;
185	:	11111111111100111001110000001111	;
186	:	00000000000011011011100010111010	;
187	:	11111111111111100000000011010010	;
188	:	00000000000000010101010011001001	;
189	:	00000000000000110111110111101001	;
190	:	11111111111101110011000110010000	;
191	:	00000000000001111101000000101000	;
192	:	11111111110111101011100001010010	;
193	:	11111111111110000010000000011101	;
194	:	00000000010010111110000011011110	;
195	:	00000000010100010001100111001110	;
196	:	11111111111101000000010011101011	;
197	:	11111111110110011011001111010001	;
198	:	00000000010010000001011011110000	;
199	:	11111111110010000011000100100111	;
200	:	00000000000111010100100101010001	;
201	:	11111111110000011111001000010011	;
202	:	11111111111100100100011101000110	;
203	:	11111111111010010000111111111010	;
204	:	00000000000000000010001011011101	;
205	:	11111111110110101000010110001000	;
206	:	00000000000101010110011011001111	;
207	:	11111111111011101011000111000101	;
208	:	00000000000100011101000101001110	;
209	:	11111111111000110101001111111000	;
210	:	00000000000101010011001001100001	;
211	:	11111111111101011110110010000001	;
212	:	11111111111111110000000100110011	;
213	:	00000000000001011000010011110100	;
214	:	11111111111101111110100100010000	;
215	:	11111111111100011111100010100001	;
216	:	00000000000001100100000110110011	;
217	:	00000000000000010011010101010100	;
218	:	00000000000001000000101101111000	;
219	:	00000000000010101101101010111001	;
220	:	00000000000001000011001011001010	;
221	:	11111111111100110110011110100001	;
222	:	11111111101110111110011101101101	;
223	:	00000000010010111100011010100111	;
224	:	00000000010000000011010001101101	;
225	:	11111111111100001101100001000101	;
226	:	00000000001100111110101010110011	;
227	:	00000000001100100110000101111100	;
228	:	00000000001010001101101110001011	;
229	:	11111111110111100110100110101110	;
230	:	00000000010001010001111010111000	;
231	:	11111111111101101001010001000111	;
232	:	00000000001001000111010001010011	;
233	:	11111111111111011101100110000000	;
234	:	00000000000001101011011110101010	;
235	:	11111111111011110110100101000101	;
236	:	00000000000010010001010100110111	;
237	:	00000000000001011101111000010101	;
238	:	11111111111101010101100110110100	;
239	:	11111111111110111100111111010101	;
240	:	00000000000010111100011010100111	;
241	:	11111111111100000110111101101010	;
242	:	00000000000001100000100000000111	;
243	:	00000000000110001001001101110100	;
244	:	11111111111100100111101110110011	;
245	:	00000000000011100101011000000100	;
246	:	11111111111001001101110100110000	;
247	:	00000000000100110101101010000101	;
248	:	11111111110101110000101000111110	;
249	:	00000000000100011011011100010111	;
250	:	00000000001101111100111011011001	;
251	:	00000000001011100100100011101000	;
252	:	00000000000100011001110011100000	;
253	:	00000000010000001000001100010010	;
254	:	00000000001010000010010000001011	;
255	:	11111111110001100101100101001011	;
256	:	11111111111010001111010111000011	;
257	:	00000000001001010110000001000001	;
258	:	11111111101111010010001000000000	;
259	:	11111111111001111110111110011110	;
260	:	11111111111011100110001100100000	;
261	:	00000000000100101011110100111100	;
262	:	00000000000001000001001101010101	;
263	:	00000000000011010000000100111010	;
264	:	11111111111111010010010010011111	;
265	:	00000000000000000101000001111010	;
266	:	11111111111111111100011001010101	;
267	:	11111111111100000011101011111100	;
268	:	11111111111111101101001010001001	;
269	:	00000000000010010101100101011111	;
270	:	11111111111101100011010111101000	;
271	:	11111111111000011100101011000001	;
272	:	00000000000101000110000010101010	;
273	:	11111111111100000101010100110011	;
274	:	00000000001101010000101100001111	;
275	:	00000000000010011000001101010001	;
276	:	11111111111101001011110001101011	;
277	:	11111111110110111000101110101101	;
278	:	00000000000001000101110010111011	;
279	:	11111111110000111100100111101111	;
280	:	11111111111110001010101100001101	;
281	:	00000000000000101110100001111101	;
282	:	00000000001100111000000111010111	;
283	:	11111111110010111110000011011111	;
284	:	11111111111011000000100000110010	;
285	:	00000000000000111001101010111111	;
286	:	00000000001011111101001000011111	;
287	:	00000000001100100001001011010111	;
288	:	00000000000001101000101100011001	;
289	:	11111111111001110000001110110000	;
290	:	11111111111111111100010111001110	;
291	:	11111111111111011011101000001011	;
292	:	11111111111101010010010101000111	;
293	:	00000000000000010001110110111100	;
294	:	11111111111110000101100111001001	;
295	:	11111111111111000001000101011110	;
296	:	11111111111010100111111011111010	;
297	:	11111111111101011110110010000001	;
298	:	00000000000011100010000110010110	;
299	:	00000000000101100001111001001111	;
300	:	11111111111111000101101011000101	;
301	:	00000000000000010100110011101100	;
302	:	11111111111110001110110010010110	;
303	:	11111111111000100011001110011101	;
304	:	00000000001011100100100011101000	;
305	:	11111111110001000001100010010100	;
306	:	11111111101110001101010011111110	;
307	:	00000000000001110101001001010100	;
308	:	11111111110000101010100110010100	;
309	:	11111111110101001001010100011001	;
310	:	00000000000101010011001001100001	;
311	:	00000000000001011011011011000011	;
312	:	11111111111110001001101101010011	;
313	:	00000000000010100011110101110000	;
314	:	11111111111001111011101100110000	;
315	:	11111111111100100001001011011000	;
316	:	00000000000011001001100001011111	;
317	:	00000000000111110110111111010010	;
318	:	00000000000001011100111001011011	;
319	:	00000000000010111100011010100111	;
320	:	00000000000100110100000001001110	;
321	:	00000000000000010101001000101010	;
322	:	00000000000001000100011111000011	;
323	:	11111111111100011100010000110011	;
324	:	00000000000011110100000111110010	;
325	:	11111111111111001001110001001110	;
326	:	11111111111100001010001111011000	;
327	:	11111111111101111000010101110011	;
328	:	00000000000011101010010010101000	;
329	:	11111111111100100001001011011000	;
330	:	00000000001001101110100101111000	;
331	:	00000000000011111100010100000100	;
332	:	00000000000101011001101100111101	;
333	:	00000000000111000100001100101100	;
334	:	11111111110010100101011110101000	;
335	:	00000000010001110001000011001011	;
336	:	11111111111010011001001100001100	;
337	:	11111111110101101011101110011001	;
338	:	00000000001010110001110001000011	;
339	:	00000000000111100001101100001000	;
340	:	11111111110001101010011111110000	;
341	:	11111111111010111011100110001101	;
342	:	00000000001011011001000101101000	;
343	:	11111111110110100110101101010001	;
344	:	11111111111110010101101010110000	;
345	:	11111111111110100000110011110010	;
346	:	11111111111110111111010010001000	;
347	:	11111111111100101011000000100001	;
348	:	11111111111111111011110101101011	;
349	:	00000000000000011101001010011101	;
350	:	00000000000000001010001001000100	;
351	:	00000000000101000100011001110011	;
352	:	11111111111011100100100011101001	;
353	:	00000000000000101100101110100111	;
354	:	00000000000010110000111100100111	;
355	:	00000000000000001000000101111111	;
356	:	11111111111001111101010101100111	;
357	:	00000000001001001111011101100101	;
358	:	11111111111011010101110011111011	;
359	:	11111111110100110101101010000110	;
360	:	00000000001011011010101110011111	;
361	:	11111111111110001011100000101000	;
362	:	00000000010000000100111010100100	;
363	:	11111111111110010101001011010011	;
364	:	11111111101001110000001110110000	;
365	:	00000000000001001000100101001100	;
366	:	00000000001100101110010010001110	;
367	:	11111111110101101011101110011001	;
368	:	11111111111110010000000110001111	;
369	:	11111111111100101111111011000110	;
370	:	00000000000110001110001000011001	;
371	:	00000000001110101001001010100011	;
372	:	00000000000010001011010000111001	;
373	:	00000000000000001011000110111011	;
374	:	11111111111110001010101100001101	;
375	:	00000000000001101001000001010111	;
376	:	00000000000010000100001110000000	;
377	:	00000000000001101101111011111100	;
378	:	11111111111101010010010101000111	;
379	:	11111111111101101010111001111110	;
380	:	00000000000101011001101100111101	;
381	:	11111111111101110010111011110001	;
382	:	11111111111101000001111100100010	;
383	:	00000000000111100011010100111111	;
384	:	00000000000100100101010001100000	;
385	:	11111111111011101110011000110010	;
386	:	00000000000100000110001001001101	;
387	:	11111111111111100011010101000000	;
388	:	00000000001001010100011000001010	;
389	:	11111111101110100111100001101101	;
390	:	00000000010011001011001010010101	;
391	:	11111111110000010000011000100101	;
392	:	11111111111000110000010101010100	;
393	:	11111111101011000111000100001101	;
394	:	11111111110011011000010001001110	;
395	:	00000000000010101101101010111001	;
396	:	00000000010001100000101010100110	;
397	:	11111111110000110111101101001011	;
398	:	11111111110010010001110100010101	;
399	:	11111111101010111000010100011111	;
400	:	11111111111100100111101110110011	;
401	:	11111111111000011001011001010011	;
402	:	00000000000000010000010100011000	;
403	:	00000000000010010010010011110010	;
404	:	11111111111110011110010110100000	;
405	:	00000000000011110101110000101000	;
406	:	11111111111110111111011100101000	;
407	:	00000000000010110100001110010101	;
408	:	11111111111101011100001010010000	;
409	:	00000000000010101101101010111001	;
410	:	11111111111110101001010101000011	;
411	:	11111111110111010111110111000000	;
412	:	11111111111110000001001100000010	;
413	:	00000000000001001011000010011110	;
414	:	11111111111010111000010100011111	;
415	:	11111111111000000100000110001010	;
416	:	11111111111111101100000000110000	;
417	:	11111111111110100001011101101110	;
418	:	11111111101100000000011010001110	;
419	:	11111111110101100101001010111110	;
420	:	11111111111000101001110001111000	;
421	:	00000000001100011111100010100000	;
422	:	11111111110001110001000011001100	;
423	:	00000000001001111000011011000010	;
424	:	11111111111010110011011001111011	;
425	:	11111111101100010101101101011000	;
426	:	00000000001100111011011001000101	;
427	:	00000000000001001010001110000011	;
428	:	00000000000000100100010111110101	;
429	:	00000000000110110010001011010000	;
430	:	11111111111100101110010010001111	;
431	:	00000000000010110010100101011110	;
432	:	00000000000000110101011010010110	;
433	:	11111111111111100110011100001111	;
434	:	11111111111110001001110111110010	;
435	:	00000000000010110000111100100111	;
436	:	11111111111101101111010101000101	;
437	:	11111111111110001100011111100011	;
438	:	11111111111110000100001000110001	;
439	:	00000000000100101101011101110011	;
440	:	11111111111011010010100010001101	;
441	:	11111111110110101000010110001000	;
442	:	00000000000110000101111100000110	;
443	:	00000000000000110101011010010110	;
444	:	11111111111100010010011011101010	;
445	:	00000000001101011100001010001111	;
446	:	11111111111110111001100011001000	;
447	:	11111111110000001110101111101110	;
448	:	00000000001101100100010110100001	;
449	:	00000000010000110001001001101110	;
450	:	00000000010011010001101101110001	;
451	:	11111111110101000110000010101011	;
452	:	00000000001101100010101101101010	;
453	:	11111111110111010001010011100100	;
454	:	11111111110110100001110010101101	;
455	:	11111111111110111110011101101101	;
456	:	00000000000001000000101101111000	;
457	:	11111111110110000010101010011010	;
458	:	00000000000100001001011010111011	;
459	:	11111111111011111000001101111100	;
460	:	00000000000011100101011000000100	;
461	:	00000000000001011100111001011011	;
462	:	11111111111101110111100001011000	;
463	:	11111111111100111110101010110100	;
464	:	00000000000110001010110110101011	;
465	:	11111111111011000101011011010110	;
466	:	00000000000100011110101110000101	;
467	:	11111111110101010100110010011001	;
468	:	00000000000011111100010100000100	;
469	:	00000000000010011001001100001011	;
470	:	00000000000010001001110010100001	;
471	:	11111111110010111010110001110010	;
472	:	11111111110101000001001000000110	;
473	:	00000000001001010001000110011100	;
474	:	11111111101111100000110111101110	;
475	:	11111111111111000001101111011011	;
476	:	00000000010101011011010101110011	;
477	:	00000000010100001100101100101001	;
478	:	00000000001110111100110100110101	;
479	:	00000000000011010110101000010110	;
480	:	00000000001001000010010110101110	;
481	:	11111111111010111001111101010110	;
482	:	11111111111111011111001110110111	;
483	:	00000000000010000100110111111100	;
484	:	11111111111010010101111010011111	;
485	:	00000000001010011110000110110000	;
486	:	00000000000000101000011101111110	;
487	:	00000000000101001100100110000101	;
488	:	11111111111101111001101001101100	;
489	:	11111111111101111101011010110111	;
490	:	00000000000100101111000110101001	;
491	:	11111111111111101000101111000010	;
492	:	11111111111010100110010011000011	;
493	:	00000000000000110001110011101010	;
494	:	11111111110111100000000011010010	;
495	:	00000000000010111001001000111010	;
496	:	00000000000100000001001110101001	;
497	:	11111111110111011001011111110111	;
498	:	11111111111110100001010011001111	;
499	:	00000000000000110011110001100000	;
500	:	00000000000100000001001110101001	;
501	:	00000000001011101001011110001101	;
502	:	11111111101001111110111110011110	;
503	:	00000000000111000010100011110101	;
504	:	00000000001000111000100001100101	;
505	:	00000000000010100010001100111001	;
506	:	00000000000001001011010111011100	;
507	:	11111111110111000100001100101101	;
508	:	11111111111000101101000011100110	;
509	:	11111111111001001000111010001011	;
510	:	11111111111011011100010111010111	;
511	:	00000000000011000001010101001100	;
512	:	00000000001001110110110010001011	;
513	:	11111111111001011010111011100111	;
514	:	11111111111110101100000111010011	;
515	:	11111111111101010101100110110100	;
516	:	00000000001001000010010110101110	;
517	:	11111111111110000101011100101010	;
518	:	11111111111011101001011110001110	;
519	:	11111111111101101000111100001001	;
520	:	00000000000011010100111111011111	;
521	:	00000000000000110010001000101001	;
522	:	00000000000101011000000100000110	;
523	:	11111111111111000101010110000111	;
524	:	11111111111000011011000010001010	;
525	:	00000000000001100010101000011011	;
526	:	11111111111100100110000101111101	;
527	:	00000000000111010110001110001000	;
528	:	11111111101000110000010101010100	;
529	:	00000000000010010010101000110000	;
530	:	00000000000001001100000001011001	;
531	:	11111111101011100100100011101001	;
532	:	00000000001010001100000101010100	;
533	:	11111111110011110100000111110011	;
534	:	11111111110010100111000111011111	;
535	:	00000000000001110110010010101101	;
536	:	11111111110110110101011100111111	;
537	:	00000000000101010100110010011000	;
538	:	00000000000110001111110001010000	;
539	:	11111111111010010000111111111010	;
540	:	11111111111001110110110010001100	;
541	:	00000000000101100110110011110100	;
542	:	00000000000101111101101111110100	;
543	:	00000000000001010101001100100110	;
544	:	11111111111011100010111010110010	;
545	:	11111111111101011100111110101011	;
546	:	00000000000010000101110110110111	;
547	:	11111111111110000110100110000100	;
548	:	11111111111101100101010101011101	;
549	:	11111111111011101011000111000101	;
550	:	11111111111111011101000110100011	;
551	:	11111111111101001111000011011001	;
552	:	00000000001000000010011101010010	;
553	:	00000000000010101000110000010101	;
554	:	00000000000010101111010011110000	;
555	:	00000000000110101011100111110101	;
556	:	11111111110100110101101010000110	;
557	:	00000000000101101000011100101011	;
558	:	00000000000101101010000101100001	;
559	:	11111111111111000111110011011001	;
560	:	00000000010110000010101010011001	;
561	:	00000000000000011011110110100101	;
562	:	11111111110000010011101010010011	;
563	:	00000000000011100010000110010110	;
564	:	00000000000110011100111000000111	;
565	:	00000000000000001110001011000001	;
566	:	11111111111100100001001011011000	;
567	:	00000000000010111010110001110001	;
568	:	00000000000100000100100000010110	;
569	:	11111111111101000110110111000110	;
570	:	11111111111010101011001101101000	;
571	:	11111111111101010101100110110100	;
572	:	00000000000010010000010101111101	;
573	:	11111111111111010001001001000101	;
574	:	11111111111011100010111010110010	;
575	:	00000000000100101101011101110011	;
576	:	11111111111110011111011111111001	;
577	:	00000000000000000100001011011000	;
578	:	11111111111110100001101000001101	;
579	:	11111111111111101101111110100101	;
580	:	11111111111100000000011010001110	;
581	:	11111111110011100111000000111011	;
582	:	00000000000010010110111001011000	;
583	:	11111111110011011000010001001110	;
584	:	00000000000100110000101111100000	;
585	:	11111111101001110101001001010101	;
586	:	00000000000011110010011110111011	;
587	:	00000000010101110101100011100010	;
588	:	11111111110000000000000000000000	;
589	:	00000000001001100110011001100110	;
590	:	11111111111100111011011001000110	;
591	:	11111111101110010000100101101100	;
592	:	00000000000101010100110010011000	;
593	:	11111111111001101100111101000010	;
594	:	11111111111001010010101111010100	;
595	:	00000000000010111111101100010101	;
596	:	11111111111110011110101011011110	;
597	:	11111111111100111001110000001111	;
598	:	00000000000111000100001100101100	;
599	:	11111111111011011110000000001110	;
600	:	00000000000011111010101011001101	;
601	:	11111111111111001110010110110101	;
602	:	00000000000001001000101111101011	;
603	:	11111111111010000101100001111010	;
604	:	00000000000011110010011110111011	;
605	:	00000000000001011000101000110010	;
606	:	00000000000000001100000011110000	;
607	:	11111111111111011101000110100011	;
608	:	00000000000110001111110001010000	;
609	:	00000000001000011011000010001001	;
610	:	00000000001010000101100001111001	;
611	:	11111111101011110110100101000101	;
612	:	11111111111010000011111001000011	;
613	:	00000000000110011110100000111110	;
614	:	00000000001011001101100111101000	;
615	:	00000000000110111111010010000111	;
616	:	11111111111010110001110001000100	;
617	:	00000000000110010110010100101011	;
618	:	00000000000001011001010010101111	;
619	:	11111111110110110111000101110110	;
620	:	11111111110101001111110111110100	;
621	:	11111111111011011110000000001110	;
622	:	00000000001100011101111001101001	;
623	:	11111111111110110011110100001000	;
624	:	11111111111100000010000011000101	;
625	:	00000000000010011100110010110111	;
626	:	11111111111011110110100101000101	;
627	:	00000000000011010100111111011111	;
628	:	11111111111011101001011110001110	;
629	:	00000000000101001100100110000101	;
630	:	00000000000000010010101011011000	;
631	:	00000000000010100011110101110000	;
632	:	11111111111100011101111001101010	;
633	:	11111111111010010111100011010101	;
634	:	00000000000110000100010011010000	;
635	:	11111111111000111000100001100110	;
636	:	11111111111100110011001100110100	;
637	:	11111111111111011001000000011001	;
638	:	00000000001100000000011010001101	;
639	:	00000000000010010010001001010011	;
640	:	00000000000100010001100111001110	;
641	:	11111111111011010010100010001101	;
642	:	00000000010010110101110111001100	;
643	:	11111111101101111001101001101100	;
644	:	00000000010000110110000100010011	;
645	:	11111111111111101111000111111110	;
646	:	00000000001101000001111100100001	;
647	:	11111111111110000011011110110101	;
648	:	11111111111011001010010101111011	;
649	:	11111111110100110010011000011000	;
650	:	00000000000001011000101000110010	;
651	:	11111111111011000000100000110010	;
652	:	00000000000010110101110111001100	;
653	:	11111111111110101011110010010101	;
654	:	11111111111111100011010101000000	;
655	:	00000000000011011001111010000011	;
656	:	00000000000000110011110001100000	;
657	:	11111111111100110001100011111101	;
658	:	00000000000100101111000110101001	;
659	:	11111111111101100100100001000001	;
660	:	00000000000100000111110010000100	;
661	:	00000000000010011101000111110110	;
662	:	11111111111100101011000000100001	;
663	:	00000000001000010100011110101110	;
664	:	11111111111010000010010000001100	;
665	:	11111111110100001100101100101010	;
666	:	11111111111001001000111010001011	;
667	:	11111111110011010001101101110010	;
668	:	11111111111001000011111111100110	;
669	:	00000000001100100001001011010111	;
670	:	11111111101111010011110000110111	;
671	:	00000000001101000101001110001110	;
672	:	00000000010011011110110100101000	;
673	:	00000000001111110110001010110110	;
674	:	00000000001010110110101011100111	;
675	:	11111111110001011111000001110000	;
676	:	00000000001100010111010110001110	;
677	:	11111111110100011000001010101010	;
678	:	00000000000100010001100111001110	;
679	:	11111111111011101011000111000101	;
680	:	11111111111011100110001100100000	;
681	:	00000000000011111001000010010110	;
682	:	11111111111111111111101011111111	;
683	:	11111111111101100101001010111110	;
684	:	11111111111101100111111101001110	;
685	:	00000000000101110111001100011000	;
686	:	11111111111001110101001001010101	;
687	:	00000000000110000111100100111101	;
688	:	11111111111010111101001111000100	;
689	:	00000000000101001010111101001111	;
690	:	11111111111100011100010000110011	;
691	:	11111111111010010000111111111010	;
692	:	00000000001110101001001010100011	;
693	:	11111111111110000010111111011000	;
694	:	11111111111011110011010011010111	;
695	:	00000000001010001111010111000010	;
696	:	11111111101101100100010110100010	;
697	:	00000000001011110011010011010110	;
698	:	00000000000101000010110000111100	;
699	:	00000000000101001010111101001111	;
700	:	11111111111010011111101111101000	;
701	:	11111111111000011011000010001010	;
702	:	11111111111011001010010101111011	;
703	:	11111111111010100111111011111010	;
704	:	00000000001111011010010100010001	;
705	:	00000000000000100001011011000110	;
706	:	11111111101001010111101001111001	;
707	:	00000000001010111001111101010101	;
708	:	11111111110000100000110001001010	;
709	:	00000000000101000001001000000101	;
710	:	11111111110010100000100100000011	;
711	:	00000000000011101000101001110001	;
712	:	00000000000000010110011100100011	;
713	:	11111111110001110010101100000011	;
714	:	00000000000111100100111101110110	;
715	:	11111111110100110010011000011000	;
716	:	00000000001001101011010100001011	;
717	:	11111111110000110100011011011101	;
718	:	00000000001011011010101110011111	;
719	:	11111111110101100000010000011001	;
720	:	00000000000111001010110000001000	;
721	:	00000000001000011100101011000000	;
722	:	00000000001110110010111111101100	;
723	:	11111111110000101000111101011101	;
724	:	00000000000001110110111100101010	;
725	:	00000000010101110010010001110100	;
726	:	00000000001100101011000000100000	;
727	:	00000000010000011010001101101110	;
728	:	11111111101100011111100010100001	;
729	:	11111111101100101001010111101010	;
730	:	11111111110011101101100100010111	;
731	:	11111111111110001001000011010110	;
732	:	00000000000000011111011101010001	;
733	:	00000000010001000100110100000001	;
734	:	00000000001110110010111111101100	;
735	:	11111111111011001011111110110010	;
736	:	00000000000010111110000011011110	;
737	:	00000000000000011000011010011000	;
738	:	11111111110010001100111001110001	;
739	:	11111111111000010100011110101111	;
740	:	00000000000100011110101110000101	;
741	:	00000000000011001100110011001100	;
742	:	11111111101100110110011110100001	;
743	:	11111111111100101100101001011000	;
744	:	11111111111111110000010001011000	;
745	:	11111111110010111001001000111011	;
746	:	00000000001100000000011010001101	;
747	:	11111111111011101110011000110010	;
748	:	11111111111110101011011101010111	;
749	:	00000000001000000111010111110110	;
750	:	11111111110110110010001011010001	;
751	:	11111111111001111010000011111010	;
752	:	00000000000001010010111001110010	;
753	:	11111111111111011110011010011011	;
754	:	00000000010000101100001111001001	;
755	:	11111111101110000001110101111110	;
756	:	00000000010011010000000100111010	;
757	:	11111111111100001101100001000101	;
758	:	00000000001110100111100001101100	;
759	:	00000000010010111001001000111010	;
760	:	00000000001011011111101001000011	;
761	:	11111111101101110011000110010000	;
762	:	00000000001010011100011101111001	;
763	:	11111111111110000000101100100101	;
764	:	11111111110101100011100010000111	;
765	:	00000000001110010101100000010000	;
766	:	00000000000110001100011111100010	;
767	:	11111111110001110101111101110000	;
768	:	11111111101111101111100111011100	;
769	:	00000000001001100011000111111000	;
770	:	00000000000100011001110011100000	;
771	:	00000000001010000101100001111001	;
772	:	11111111110110100001110010101101	;
773	:	11111111101100001111001001111100	;
774	:	11111111101100011111100010100001	;
775	:	11111111101111111001011100100101	;
776	:	00000000010101000001001000000101	;
777	:	11111111111001001111011101100110	;
778	:	11111111111011100100100011101001	;
779	:	00000000010010010011011101001011	;
780	:	11111111111001001100001011111001	;
781	:	11111111110101010100110010011001	;
782	:	11111111110101100110110011110101	;
783	:	11111111110010110101110111001101	;

END;
