-- Copyright (C) 2020  Intel Corporation. All rights reserved.
-- Your use of Intel Corporation's design tools, logic functions 
-- and other software and tools, and any partner logic 
-- functions, and any output files from any of the foregoing 
-- (including device programming or simulation files), and any 
-- associated documentation or information are expressly subject 
-- to the terms and conditions of the Intel Program License 
-- Subscription Agreement, the Intel Quartus Prime License Agreement,
-- the Intel FPGA IP License Agreement, or other applicable license
-- agreement, including, without limitation, that your use is for
-- the sole purpose of programming logic devices manufactured by
-- Intel and sold by Intel or its authorized distributors.  Please
-- refer to the applicable agreement for further details, at
-- https://fpgasoftware.intel.com/eula.

-- Quartus Prime generated Memory Initialization File (.mif)

WIDTH=32;
DEPTH=784;

ADDRESS_RADIX=UNS;
DATA_RADIX=BIN;

CONTENT BEGIN

0	:	00000000010010010110101110111001	;
1	:	00000000000110010110010100101011	;
2	:	00000000000011110111011001011111	;
3	:	11111111111011100110001100100000	;
4	:	11111111110101011011010101110100	;
5	:	11111111110100111010100100101011	;
6	:	11111111111010011001001100001100	;
7	:	11111111101101011101110011000111	;
8	:	11111111101100101011000000100001	;
9	:	11111111101110111100110100110110	;
10	:	00000000000001011011010000100100	;
11	:	00000000001010110101000010110000	;
12	:	11111111101010010101111010011111	;
13	:	11111111101111010101011001101101	;
14	:	00000000001001111000011011000010	;
15	:	11111111111110011100011000101011	;
16	:	00000000001100010111010110001110	;
17	:	11111111101010100110010011000011	;
18	:	00000000001100111101000001111100	;
19	:	00000000010010100011110101110000	;
20	:	11111111101111111110010111001010	;
21	:	11111111111000111010001010011101	;
22	:	11111111111110111000100100001110	;
23	:	11111111110101101010000101100010	;
24	:	00000000010011110010011110111011	;
25	:	11111111101110010111001001001000	;
26	:	11111111111000111111000101000010	;
27	:	11111111111101110111100001011000	;
28	:	00000000010100001001011010111011	;
29	:	11111111111111001101000010111100	;
30	:	00000000010010001100111001110000	;
31	:	00000000000111000000111010111110	;
32	:	00000000000110001110001000011001	;
33	:	00000000000010111001001000111010	;
34	:	11111111110110111100000000011011	;
35	:	00000000000001111001111001011001	;
36	:	00000000000011101010010010101000	;
37	:	00000000010100111100001101100001	;
38	:	11111111111110111010000010100110	;
39	:	00000000001010101110011111010101	;
40	:	11111111111010000000100111010101	;
41	:	11111111110100101000100011001111	;
42	:	11111111101011101001011110001110	;
43	:	11111111101010111101001111000100	;
44	:	00000000001110110010111111101100	;
45	:	11111111111000101110101100011101	;
46	:	11111111111001001010100011000010	;
47	:	00000000000001011101100011010111	;
48	:	00000000000110110101011100111110	;
49	:	11111111101111101001000100000000	;
50	:	00000000000001110110111100101010	;
51	:	11111111111001111101010101100111	;
52	:	00000000000101110011111010101011	;
53	:	00000000000111111010010000111111	;
54	:	11111111101110010000100101101100	;
55	:	00000000000001000100111110100000	;
56	:	00000000001100101011000000100000	;
57	:	11111111111100101100101001011000	;
58	:	11111111111010010000111111111010	;
59	:	00000000010010001100111001110000	;
60	:	00000000000110010110010100101011	;
61	:	00000000000001111100010110101100	;
62	:	11111111111010110001110001000100	;
63	:	00000000000011110100000111110010	;
64	:	11111111111011010101110011111011	;
65	:	11111111111100110100110101101011	;
66	:	11111111101110000110110000100011	;
67	:	11111111101010100001011000011111	;
68	:	00000000001001001111011101100101	;
69	:	00000000001010101100110110011110	;
70	:	11111111111101111111101101101010	;
71	:	11111111110011001001100001100000	;
72	:	11111111110000111100100111101111	;
73	:	11111111101011111000001101111100	;
74	:	00000000000111111101100010101101	;
75	:	11111111110110000100010011010001	;
76	:	00000000001010111110110111111010	;
77	:	11111111101110011000110001111111	;
78	:	11111111110111110011101101100101	;
79	:	00000000000111000000111010111110	;
80	:	00000000001100001111001001111011	;
81	:	11111111101100011111100010100001	;
82	:	00000000001111101111100111011011	;
83	:	00000000001111010000011111001000	;
84	:	00000000000001010000111011111101	;
85	:	00000000001010111101001111000011	;
86	:	00000000000101010001100000101010	;
87	:	00000000010101111010011110000110	;
88	:	00000000001111111110010111001001	;
89	:	11111111111100110001100011111101	;
90	:	00000000000111010010111100011010	;
91	:	11111111101010001101101110001100	;
92	:	00000000000000011011001100101000	;
93	:	11111111101010001100000101010101	;
94	:	11111111101010101001100100110001	;
95	:	00000000000111100000000011010001	;
96	:	00000000000101110000101000111101	;
97	:	00000000001000101101000011100101	;
98	:	11111111110000001001110101001010	;
99	:	00000000001111001110110110010001	;
100	:	00000000000101000001001000000101	;
101	:	11111111110111100011010101000000	;
102	:	00000000000001111101001011000111	;
103	:	11111111111100100100011101000110	;
104	:	11111111110010110010100101011111	;
105	:	00000000001110001000011001011001	;
106	:	11111111110111110010000100101110	;
107	:	00000000000100000001001110101001	;
108	:	11111111101111001011100100100100	;
109	:	11111111111001111010000011111010	;
110	:	00000000001101001111000011011000	;
111	:	00000000001100001000100110100000	;
112	:	00000000001100000110111101101001	;
113	:	11111111110110011100111000001000	;
114	:	00000000000101110010010001110100	;
115	:	11111111111101111010011110000111	;
116	:	00000000000010101101101010111001	;
117	:	11111111110010010101000110000011	;
118	:	00000000000010101000110000010101	;
119	:	11111111101010010100010001101000	;
120	:	00000000001101010011111101111100	;
121	:	00000000000001010111111110110110	;
122	:	00000000000110000001000001100010	;
123	:	11111111110111001100011001000000	;
124	:	00000000000100000001001110101001	;
125	:	11111111101111000011011000010010	;
126	:	00000000000011111101111100111011	;
127	:	11111111111000100001100101100110	;
128	:	11111111110101100110110011110101	;
129	:	00000000000011101011111011011111	;
130	:	11111111110101100001111001010000	;
131	:	00000000000010010010101000110000	;
132	:	00000000010010010110101110111001	;
133	:	11111111110001000100110100000010	;
134	:	00000000010100011001110011100000	;
135	:	00000000001010010100010001100111	;
136	:	00000000010010111010110001110001	;
137	:	00000000010010001100111001110000	;
138	:	00000000010011011000010001001101	;
139	:	00000000000100011110101110000101	;
140	:	00000000000001110011100000011101	;
141	:	11111111101110000000001101000111	;
142	:	00000000000011101101100100010110	;
143	:	00000000001111100000110111101101	;
144	:	11111111110011000111111000101001	;
145	:	00000000010001011101011000111000	;
146	:	11111111110011101011111011100000	;
147	:	11111111110101101101010111010000	;
148	:	11111111110111101000001111100101	;
149	:	11111111101001010001000110011101	;
150	:	00000000000000000111111010011101	;
151	:	00000000000110011001100110011001	;
152	:	11111111111001110001110111100111	;
153	:	00000000000100011001110011100000	;
154	:	11111111111110101110011010000110	;
155	:	00000000000111110010000100101101	;
156	:	00000000001000111010001010011100	;
157	:	11111111111001001000111010001011	;
158	:	11111111111011100100100011101001	;
159	:	11111111111011100111110101010111	;
160	:	11111111111011001111010000100000	;
161	:	00000000000100001001011010111011	;
162	:	00000000000100110111010010111100	;
163	:	00000000001100000010000011000100	;
164	:	00000000001010111011100110001100	;
165	:	00000000000100000010110111100000	;
166	:	00000000001110101001001010100011	;
167	:	11111111101001110000001110110000	;
168	:	11111111110110010110010100101100	;
169	:	00000000000110000111100100111101	;
170	:	00000000010000000001101000110110	;
171	:	00000000000111111000101000001001	;
172	:	11111111101010000111001010110001	;
173	:	00000000010011010110101000010110	;
174	:	00000000001001100011000111111000	;
175	:	11111111110101100001111001010000	;
176	:	11111111111110010101000000110100	;
177	:	00000000000000001011101001100010	;
178	:	11111111111101111110101110110000	;
179	:	11111111110010001110100010101000	;
180	:	11111111110000011010001101101111	;
181	:	00000000010000011101011111011011	;
182	:	11111111110110000001000001100011	;
183	:	11111111111000110001111110001011	;
184	:	11111111110010001110100010101000	;
185	:	00000000000111010111110110111111	;
186	:	00000000000010101101101010111001	;
187	:	00000000000111011001011111110110	;
188	:	11111111111101110101101110000010	;
189	:	00000000000110111000101110101100	;
190	:	11111111110101000111101011100010	;
191	:	11111111111011011111101001000100	;
192	:	11111111110001001110101001001011	;
193	:	11111111111001100110011001100111	;
194	:	11111111110111110010000100101110	;
195	:	00000000000000001000011110000111	;
196	:	00000000000000011100111111111110	;
197	:	11111111111101010000101100010000	;
198	:	00000000001011010010100010001100	;
199	:	11111111111110101110111001100100	;
200	:	00000000000101001010111101001111	;
201	:	11111111111011010010100010001101	;
202	:	00000000000001100001110011111111	;
203	:	00000000000010100111000111011110	;
204	:	11111111111111011011010011001101	;
205	:	11111111110111000111011110011011	;
206	:	00000000001000111000100001100101	;
207	:	11111111110011101011111011100000	;
208	:	00000000001111101010101100110110	;
209	:	11111111110001100000101010100111	;
210	:	00000000000010100011110101110000	;
211	:	11111111111111000110011111100000	;
212	:	00000000000011110111011001011111	;
213	:	11111111110010111010110001110010	;
214	:	00000000001000001001000000101101	;
215	:	00000000000100100101010001100000	;
216	:	00000000000001000010010110101110	;
217	:	11111111110110110111000101110110	;
218	:	11111111111110101110001111100111	;
219	:	00000000001011011110000000001101	;
220	:	00000000000010111110000011011110	;
221	:	11111111101111110100100010000000	;
222	:	11111111110011001110011100000100	;
223	:	00000000001010100001011000011110	;
224	:	11111111110000101010100110010100	;
225	:	11111111110001110101111101110000	;
226	:	00000000000101011011010101110011	;
227	:	00000000000011101101100100010110	;
228	:	00000000001001011111110110001010	;
229	:	11111111110100000100100000010111	;
230	:	00000000010001010110110101011100	;
231	:	00000000000000111101011100001010	;
232	:	00000000000001001001001111001000	;
233	:	11111111110000000100111010100101	;
234	:	11111111101111110010111001001001	;
235	:	00000000001111000001101111011010	;
236	:	11111111110011101101100100010111	;
237	:	11111111110101101011101110011001	;
238	:	00000000000001011001111100101011	;
239	:	11111111110100101101011101110100	;
240	:	00000000001001011001010010101111	;
241	:	11111111110000010011101010010011	;
242	:	11111111110011001001100001100000	;
243	:	11111111110110111100000000011011	;
244	:	00000000001001101001101011010100	;
245	:	00000000001111000000000110100011	;
246	:	11111111111001001101110100110000	;
247	:	00000000010001100011111100010100	;
248	:	00000000000000011010011000001101	;
249	:	11111111101110111110011101101101	;
250	:	00000000010001111001001111011101	;
251	:	11111111110101100011100010000111	;
252	:	11111111111001101001101011010101	;
253	:	11111111111011101110011000110010	;
254	:	11111111111100001011111000001110	;
255	:	11111111111011110100111100001110	;
256	:	11111111101111000110101001111111	;
257	:	00000000000100010110100001110010	;
258	:	11111111101001111110111110011110	;
259	:	11111111110000010101010011001010	;
260	:	11111111111000110011100111000001	;
261	:	00000000001110010011110111011001	;
262	:	11111111110000111110010000100110	;
263	:	11111111101110100100001111111111	;
264	:	00000000010000011101011111011011	;
265	:	00000000001000110000010101010011	;
266	:	00000000001010011110000110110000	;
267	:	11111111111011111101001000100000	;
268	:	00000000001001100011000111111000	;
269	:	00000000000110011011001111010000	;
270	:	00000000000001100100011011110001	;
271	:	11111111101111100101110010010010	;
272	:	11111111110001110111100110100111	;
273	:	11111111110010101111010011110001	;
274	:	11111111110000011101011111011100	;
275	:	11111111111000111000100001100110	;
276	:	11111111101011001111010000100000	;
277	:	11111111110110000100010011010001	;
278	:	00000000001001001100001011111000	;
279	:	00000000010010001100111001110000	;
280	:	00000000001001011100100100011101	;
281	:	11111111101111100101110010010010	;
282	:	11111111111010010100010001101000	;
283	:	00000000010101000001001000000101	;
284	:	11111111101110100000111110010001	;
285	:	11111111110000111110010000100110	;
286	:	11111111110010100000100100000011	;
287	:	11111111111011110100111100001110	;
288	:	11111111110111010110001110001001	;
289	:	00000000000001101000001100111100	;
290	:	00000000001101110011000110001111	;
291	:	00000000010000011000100100110111	;
292	:	11111111101111111011000101011100	;
293	:	11111111110110110111000101110110	;
294	:	00000000000111001010110000001000	;
295	:	11111111111101101100000011010111	;
296	:	11111111111100000010000011000101	;
297	:	00000000000011101011111011011111	;
298	:	00000000000100000111110010000100	;
299	:	00000000001011111011011111101001	;
300	:	11111111110100000010110111100001	;
301	:	00000000000000101111010110011000	;
302	:	11111111110100100011101000101010	;
303	:	00000000001110010101100000010000	;
304	:	11111111101010000101100001111010	;
305	:	00000000001000110000010101010011	;
306	:	11111111101100010100000100100001	;
307	:	11111111110110111000101110101101	;
308	:	11111111111011111101001000100000	;
309	:	11111111101111011011111101001001	;
310	:	00000000001101100100010110100001	;
311	:	00000000001100010000110010110010	;
312	:	11111111101100011000111111000110	;
313	:	00000000001000100011001110011100	;
314	:	00000000000110111111010010000111	;
315	:	00000000010000000100111010100100	;
316	:	11111111111000010001001101000001	;
317	:	11111111101111101111100111011100	;
318	:	11111111101101111000000000110101	;
319	:	11111111111010010111100011010101	;
320	:	00000000000011101101100100010110	;
321	:	00000000000001011101111000010101	;
322	:	00000000001110111100110100110101	;
323	:	00000000010010101010011001001100	;
324	:	00000000000100010001100111001110	;
325	:	00000000000000000110011110001100	;
326	:	11111111111100101011000000100001	;
327	:	11111111101101101100100010110101	;
328	:	00000000001100010100000100100000	;
329	:	11111111101100100110000101111101	;
330	:	11111111111100010100000100100001	;
331	:	11111111110000000110100011011100	;
332	:	11111111111111101100010101101110	;
333	:	00000000001110011101101100100010	;
334	:	00000000001110101001001010100011	;
335	:	00000000001010101110011111010101	;
336	:	00000000010100101011110100111100	;
337	:	00000000010011110101110000101000	;
338	:	00000000001100101001010111101001	;
339	:	11111111111000011100101011000001	;
340	:	00000000000010010010001001010011	;
341	:	00000000001110100101111000110101	;
342	:	11111111111010101110011111010110	;
343	:	11111111101110001110111100110101	;
344	:	11111111101101011010100001011001	;
345	:	00000000010000101100001111001001	;
346	:	11111111111111100011000000000010	;
347	:	00000000000100000111110010000100	;
348	:	11111111111010000011111001000011	;
349	:	00000000001010111011100110001100	;
350	:	00000000000100110100000001001110	;
351	:	11111111111010111001111101010110	;
352	:	00000000001000010100011110101110	;
353	:	11111111111001001000111010001011	;
354	:	00000000001011110100111100001101	;
355	:	00000000000100110111010010111100	;
356	:	00000000001110010111001001000111	;
357	:	11111111111001101000000010011110	;
358	:	11111111111110000010111111011000	;
359	:	11111111101011100001010001111011	;
360	:	11111111111100101100101001011000	;
361	:	00000000000000011011101100000101	;
362	:	11111111110111010001010011100100	;
363	:	11111111110010101100000010000100	;
364	:	11111111111000000100000110001010	;
365	:	00000000001111101111100111011011	;
366	:	00000000001000010001001101000000	;
367	:	00000000010010000110010110010100	;
368	:	11111111111100111000000111011000	;
369	:	11111111111111000101001011101000	;
370	:	00000000000010011101011100110100	;
371	:	00000000010000100100000010110111	;
372	:	11111111101010110101000010110001	;
373	:	00000000010000011101011111011011	;
374	:	11111111110001110100010100111001	;
375	:	11111111110000010010000001011100	;
376	:	00000000001100011100010000110010	;
377	:	11111111110111100001101100001001	;
378	:	00000000010100001001011010111011	;
379	:	00000000000100110111010010111100	;
380	:	11111111111001010110000001000010	;
381	:	00000000000010001111001100100011	;
382	:	11111111111001010010101111010100	;
383	:	11111111101010111001111101010110	;
384	:	11111111110001000100110100000010	;
385	:	11111111101111011000101011011011	;
386	:	11111111110100001111111110011000	;
387	:	00000000001111011111001110110110	;
388	:	11111111110110110010001011010001	;
389	:	00000000000101110011111010101011	;
390	:	00000000001111001110110110010001	;
391	:	00000000010100000100100000010110	;
392	:	00000000010011011000010001001101	;
393	:	11111111110010010000001011011111	;
394	:	00000000001111011000101011011010	;
395	:	00000000010101011000000100000110	;
396	:	00000000001110010000100101101011	;
397	:	11111111101010011110000110110001	;
398	:	00000000000100011011011100010111	;
399	:	00000000001000001101111011010010	;
400	:	11111111111011110110100101000101	;
401	:	11111111110101110010010001110101	;
402	:	11111111101110100111100001101101	;
403	:	11111111110001111110001010000011	;
404	:	00000000000001100000000000101001	;
405	:	11111111111010001010011100011110	;
406	:	00000000000011001110011100000011	;
407	:	00000000001000000101101111000000	;
408	:	00000000010010101101101010111001	;
409	:	11111111111011110011010011010111	;
410	:	11111111111001111011101100110000	;
411	:	11111111110001000001100010010100	;
412	:	00000000000110001100011111100010	;
413	:	00000000001110010011110111011001	;
414	:	11111111101010000101100001111010	;
415	:	00000000000011010011010110101000	;
416	:	00000000010000011011110110100101	;
417	:	11111111111001001101110100110000	;
418	:	00000000001100100111101110110010	;
419	:	00000000010000001000001100010010	;
420	:	11111111101100110110011110100001	;
421	:	00000000000110010001011010000111	;
422	:	11111111110100000001001110101010	;
423	:	11111111101111011111001110110111	;
424	:	00000000001010011110000110110000	;
425	:	11111111101111101010101100110111	;
426	:	00000000000110010110010100101011	;
427	:	11111111111100001101100001000101	;
428	:	11111111110111110101010110011100	;
429	:	11111111101111000000000110100100	;
430	:	11111111110110110111000101110110	;
431	:	00000000001100110011001100110011	;
432	:	00000000000100011101000101001110	;
433	:	00000000001100100001001011010111	;
434	:	11111111111000011011000010001010	;
435	:	11111111111011010000111001010111	;
436	:	00000000000001010110111111111100	;
437	:	11111111111100011010100111111100	;
438	:	11111111101001001111011101100110	;
439	:	11111111110111100001101100001001	;
440	:	11111111101000000000110100011100	;
441	:	11111111111110110111111010010001	;
442	:	00000000001000010111110000011011	;
443	:	11111111111011011111101001000100	;
444	:	11111111101100010010011011101010	;
445	:	00000000000000000100100011100000	;
446	:	00000000001010100111111011111001	;
447	:	00000000000111000010100011110101	;
448	:	00000000001111001000010010110101	;
449	:	00000000000111010110001110001000	;
450	:	00000000000001001010011000100010	;
451	:	00000000001101111110100100001111	;
452	:	00000000001111011010010100010001	;
453	:	00000000001101101110001011101011	;
454	:	00000000000010101111010011110000	;
455	:	00000000000001010100101101001000	;
456	:	00000000000011111001000010010110	;
457	:	00000000001110010011110111011001	;
458	:	11111111110101111000110101010000	;
459	:	00000000000001101110110000010111	;
460	:	11111111101010101110011111010110	;
461	:	00000000001100000110111101101001	;
462	:	00000000001110110111111010010000	;
463	:	11111111110101000110000010101011	;
464	:	00000000000100111010100100101010	;
465	:	11111111111010010111100011010101	;
466	:	00000000000010100010000010011010	;
467	:	11111111101000111011110011010100	;
468	:	00000000001001110000001110101111	;
469	:	00000000001010010111100011010100	;
470	:	00000000001000110110111000101110	;
471	:	00000000000100001111111110010111	;
472	:	11111111101100000110111101101010	;
473	:	11111111111100010111010110001111	;
474	:	11111111110010110111100000000100	;
475	:	00000000001010000111001010110000	;
476	:	00000000001111110100100001111111	;
477	:	00000000000101110010010001110100	;
478	:	11111111101011110100111100001110	;
479	:	11111111111110101101110000001010	;
480	:	11111111110101110111001100011001	;
481	:	00000000000101101111000000000110	;
482	:	11111111111010100011000001010110	;
483	:	11111111111100100100011101000110	;
484	:	11111111110010001100111001110001	;
485	:	11111111110001000011001011001011	;
486	:	00000000000011110111011001011111	;
487	:	00000000000101110011111010101011	;
488	:	00000000001011001000101101000011	;
489	:	11111111111001011001010010110000	;
490	:	00000000001100000000011010001101	;
491	:	00000000000101000001001000000101	;
492	:	00000000001000111011110011010011	;
493	:	11111111101000000000110100011100	;
494	:	00000000000100111010100100101010	;
495	:	11111111101010100001011000011111	;
496	:	11111111111001100110011001100111	;
497	:	00000000000011101010010010101000	;
498	:	11111111111100101110010010001111	;
499	:	11111111101101111110100100010000	;
500	:	00000000000001110011000001000000	;
501	:	00000000010010101111010011110000	;
502	:	11111111110100001111111110011000	;
503	:	00000000010000011010001101101110	;
504	:	11111111101111100100001001011011	;
505	:	00000000000110000101111100000110	;
506	:	11111111101100010101101101011000	;
507	:	00000000000001100010011101111100	;
508	:	00000000010000000100111010100100	;
509	:	11111111111010110011011001111011	;
510	:	11111111111110000111000101100001	;
511	:	11111111101101110001011101011001	;
512	:	00000000000100011101000101001110	;
513	:	11111111110010010001110100010101	;
514	:	11111111111100010100000100100001	;
515	:	11111111111111010001011110000011	;
516	:	11111111111000000010011101010011	;
517	:	00000000001110110100101000100011	;
518	:	00000000000000010010000001011011	;
519	:	11111111111010110101000010110001	;
520	:	11111111101100000101010100110011	;
521	:	11111111111100110100110101101011	;
522	:	11111111111110110000101100111010	;
523	:	00000000001101001000011111111100	;
524	:	00000000000101001100100110000101	;
525	:	00000000000111111010010000111111	;
526	:	00000000001011100010111010110001	;
527	:	00000000000110100101000100011001	;
528	:	11111111111010111011100110001101	;
529	:	11111111110010000110010110010101	;
530	:	11111111110110111010010111100100	;
531	:	00000000001000111101011100001010	;
532	:	11111111110001010011100011110000	;
533	:	11111111110110000001000001100011	;
534	:	00000000001011100110001100011111	;
535	:	00000000001110000001110101111101	;
536	:	00000000000000011100101011000000	;
537	:	11111111111101110101001110100100	;
538	:	11111111111011001010010101111011	;
539	:	11111111101111001101001101011011	;
540	:	00000000000010110100001110010101	;
541	:	00000000001011101110011000110001	;
542	:	11111111110011111111100101110011	;
543	:	11111111110001000011001011001011	;
544	:	11111111101101011100001010010000	;
545	:	11111111111001001111011101100110	;
546	:	11111111110011011110110100101001	;
547	:	11111111111110010000011011001101	;
548	:	00000000000001011110010111110011	;
549	:	00000000000110101000010110000111	;
550	:	11111111110100011011011100011000	;
551	:	00000000001011000101011011010101	;
552	:	00000000000100000111110010000100	;
553	:	11111111101011001010010101111011	;
554	:	11111111101111111100101110010011	;
555	:	11111111111010100100101010001101	;
556	:	11111111110011011000010001001110	;
557	:	11111111110011100010000110010111	;
558	:	00000000001011100010111010110001	;
559	:	00000000000010101100000010000011	;
560	:	00000000000010010110111001011000	;
561	:	11111111110101100110110011110101	;
562	:	00000000001001011010111011100110	;
563	:	00000000000000101000110010111101	;
564	:	11111111111111000100010111001100	;
565	:	00000000000010010100010001100111	;
566	:	00000000000001011010011100001000	;
567	:	11111111110111111011111001110111	;
568	:	00000000010001001101000000010011	;
569	:	11111111110101001010111101010000	;
570	:	11111111111110110001001100010111	;
571	:	00000000001110001000011001011001	;
572	:	00000000010001111100100001001011	;
573	:	11111111111100101111111011000110	;
574	:	00000000001100110001100011111100	;
575	:	11111111110111110110111111010011	;
576	:	00000000001011111000001101111011	;
577	:	11111111111001011001010010110000	;
578	:	11111111111100011101111001101010	;
579	:	11111111101010011100011101111010	;
580	:	00000000010100000001001110101001	;
581	:	00000000001110100100001111111110	;
582	:	11111111110100100011101000101010	;
583	:	11111111110001001000000101110000	;
584	:	00000000010011011011100010111010	;
585	:	11111111101011110100111100001110	;
586	:	11111111110100101111000110101010	;
587	:	11111111101011110000000001101001	;
588	:	00000000000011010100111111011111	;
589	:	00000000010011101010010010101000	;
590	:	00000000000101000111101011100001	;
591	:	11111111111111101110011110000010	;
592	:	11111111111100111110101010110100	;
593	:	11111111110010111111101100010110	;
594	:	11111111111101011100001010010000	;
595	:	00000000001000110110111000101110	;
596	:	11111111110001101111011010010101	;
597	:	11111111110111100100111101110111	;
598	:	00000000010100111101110110010111	;
599	:	11111111110010001011010000111010	;
600	:	11111111111000100011001110011101	;
601	:	11111111110100111101110110011000	;
602	:	00000000000110111010010111100011	;
603	:	11111111111111001010111010101000	;
604	:	00000000000100110100000001001110	;
605	:	00000000001010100001011000011110	;
606	:	00000000010000000001101000110110	;
607	:	11111111111101111000000000110101	;
608	:	11111111101111000001101111011011	;
609	:	11111111101011011110000000001110	;
610	:	00000000000100100110111010010111	;
611	:	11111111101100100010110100001111	;
612	:	11111111111010001101101110001100	;
613	:	00000000000001111011000010110011	;
614	:	11111111110011101010010010101001	;
615	:	11111111101010001101101110001100	;
616	:	11111111101100001101100001000101	;
617	:	11111111101101010101100110110100	;
618	:	11111111110100000110001001001110	;
619	:	11111111110101110011111010101100	;
620	:	00000000001000011011000010001001	;
621	:	00000000001000101000001001000000	;
622	:	11111111111000000000110100011100	;
623	:	11111111111101001010001000110100	;
624	:	11111111111100001111001001111100	;
625	:	00000000001110011100000011101011	;
626	:	11111111101110010101100000010001	;
627	:	11111111111011011001000101101001	;
628	:	11111111111111010101001111001110	;
629	:	11111111110010110101110111001101	;
630	:	11111111110110001001001101110101	;
631	:	11111111111001000000101101111001	;
632	:	11111111110100100110111010011000	;
633	:	11111111111110001110011101011000	;
634	:	00000000001100111011011001000101	;
635	:	00000000001000010111110000011011	;
636	:	00000000001101001101011010100001	;
637	:	11111111110110100000001001110110	;
638	:	11111111101111001011100100100100	;
639	:	11111111101011111101001000100000	;
640	:	00000000010011111010101011001101	;
641	:	11111111111001101110100101111001	;
642	:	11111111110110001010110110101100	;
643	:	00000000001011011100010111010110	;
644	:	00000000001110000001110101111101	;
645	:	00000000000111101001111000011011	;
646	:	00000000001001010100011000001010	;
647	:	11111111111111010010001000000000	;
648	:	11111111110111111000101000001010	;
649	:	11111111110110011011001111010001	;
650	:	00000000010000010101010011001001	;
651	:	00000000000011100000011101011111	;
652	:	00000000000100101101011101110011	;
653	:	11111111110110010001011010001000	;
654	:	11111111111101010011111101111101	;
655	:	00000000000001011011100101100010	;
656	:	00000000000100000001001110101001	;
657	:	00000000001000101000001001000000	;
658	:	00000000000010011101011100110100	;
659	:	11111111111111110011100100001001	;
660	:	11111111111100100111101110110011	;
661	:	11111111111100110001100011111101	;
662	:	11111111110111001110000001110110	;
663	:	00000000000000010001001101000000	;
664	:	00000000001101000000010011101010	;
665	:	00000000001100000011101011111011	;
666	:	00000000000010010001001010011000	;
667	:	11111111110011010000000100111011	;
668	:	11111111111100110011001100110100	;
669	:	11111111110111100000000011010010	;
670	:	11111111110110010110010100101100	;
671	:	00000000010100000111110010000100	;
672	:	00000000010010010011011101001011	;
673	:	11111111101100100110000101111101	;
674	:	11111111111001000101101000011101	;
675	:	11111111101100100110000101111101	;
676	:	00000000001001101000000010011101	;
677	:	00000000000001111100000001101110	;
678	:	11111111110001101010011111110000	;
679	:	00000000001111100000110111101101	;
680	:	11111111101110110010111111101101	;
681	:	00000000000110000010101010011001	;
682	:	00000000000100001011000011110010	;
683	:	11111111101101101111110100100010	;
684	:	11111111110011000010111110000100	;
685	:	11111111101111001011100100100100	;
686	:	11111111111111111001111000111001	;
687	:	00000000000000010011101010010010	;
688	:	11111111111100001111001001111100	;
689	:	11111111110011010100111111100000	;
690	:	00000000000001100010010011011101	;
691	:	00000000000000001010000001101110	;
692	:	11111111101111100010100000100101	;
693	:	11111111111010110101000010110001	;
694	:	11111111111010111000010100011111	;
695	:	00000000000111010010111100011010	;
696	:	00000000001101011010100001011000	;
697	:	11111111101100111000000111011000	;
698	:	00000000001101010000101100001111	;
699	:	00000000001011111000001101111011	;
700	:	11111111110111101001111000011100	;
701	:	11111111111110100000110011110010	;
702	:	11111111111100011100010000110011	;
703	:	11111111110100101010001100000110	;
704	:	11111111101100111110101010110100	;
705	:	00000000001110000101000111101011	;
706	:	00000000001001010111101001111000	;
707	:	11111111101100101110010010001111	;
708	:	11111111101111011000101011011011	;
709	:	00000000001100000010000011000100	;
710	:	11111111101010110001110001000100	;
711	:	00000000010000000100111010100100	;
712	:	11111111101010101110011111010110	;
713	:	11111111110001100011111100010101	;
714	:	00000000000110100001110010101100	;
715	:	11111111101001000111010001010100	;
716	:	00000000000011001100110011001100	;
717	:	11111111110110110011110100001000	;
718	:	11111111111001101001101011010101	;
719	:	00000000001111101001000011111111	;
720	:	00000000010011110100000111110010	;
721	:	00000000001111110100100001111111	;
722	:	00000000001110011010011010110101	;
723	:	00000000000101101101010111001111	;
724	:	11111111101010100110010011000011	;
725	:	11111111110011100011101111001110	;
726	:	00000000001100100110000101111100	;
727	:	11111111101011101001011110001110	;
728	:	11111111111001001010100011000010	;
729	:	00000000001110010010001110100010	;
730	:	11111111110010111010110001110010	;
731	:	00000000010011110100000111110010	;
732	:	11111111110001100010010011011110	;
733	:	00000000010101001111110111110011	;
734	:	00000000000001000110100111010111	;
735	:	11111111110101100011100010000111	;
736	:	11111111110001000110011100111001	;
737	:	00000000001001011110001101010011	;
738	:	11111111101100001011111000001110	;
739	:	00000000001101111100111011011001	;
740	:	00000000000010000011000100100110	;
741	:	11111111111010000000100111010101	;
742	:	11111111101101100111101000010000	;
743	:	11111111111010100100101010001101	;
744	:	11111111111001111110111110011110	;
745	:	00000000000011000001010101001100	;
746	:	11111111111010010000111111111010	;
747	:	11111111110010000011000100100111	;
748	:	00000000001110011100000011101011	;
749	:	11111111111011001011111110110010	;
750	:	00000000000101111101101111110100	;
751	:	11111111111111000100110110101010	;
752	:	11111111101011111110110001010111	;
753	:	11111111110111000100001100101101	;
754	:	00000000000111010010111100011010	;
755	:	00000000000000000001101101000011	;
756	:	11111111101100100111101110110011	;
757	:	00000000001111100010100000100100	;
758	:	11111111111100000000011010001110	;
759	:	00000000001100100010110100001110	;
760	:	11111111111001110011100000011110	;
761	:	11111111110100100001111111110011	;
762	:	00000000000110111111010010000111	;
763	:	11111111101110000110110000100011	;
764	:	11111111101100111110101010110100	;
765	:	11111111101100101111111011000110	;
766	:	11111111101111101010101100110111	;
767	:	00000000001110000001110101111101	;
768	:	00000000001100001010001111010111	;
769	:	00000000001001011010111011100110	;
770	:	11111111110000100010011010000001	;
771	:	00000000000011111111100101110010	;
772	:	11111111101110100101111000110110	;
773	:	00000000010011101101100100010110	;
774	:	11111111110000111010111110111000	;
775	:	11111111111001001000111010001011	;
776	:	00000000000000101000101000011101	;
777	:	00000000000001100000100000000111	;
778	:	00000000000001010010001111110110	;
779	:	00000000010110000111100100111101	;
780	:	11111111110111001111101010101101	;
781	:	11111111110000010000011000100101	;
782	:	00000000000111010100100101010001	;
783	:	00000000000111100011010100111111	;

END;
