-- Copyright (C) 2020  Intel Corporation. All rights reserved.
-- Your use of Intel Corporation's design tools, logic functions 
-- and other software and tools, and any partner logic 
-- functions, and any output files from any of the foregoing 
-- (including device programming or simulation files), and any 
-- associated documentation or information are expressly subject 
-- to the terms and conditions of the Intel Program License 
-- Subscription Agreement, the Intel Quartus Prime License Agreement,
-- the Intel FPGA IP License Agreement, or other applicable license
-- agreement, including, without limitation, that your use is for
-- the sole purpose of programming logic devices manufactured by
-- Intel and sold by Intel or its authorized distributors.  Please
-- refer to the applicable agreement for further details, at
-- https://fpgasoftware.intel.com/eula.

-- Quartus Prime generated Memory Initialization File (.mif)

WIDTH=32;
DEPTH=784;

ADDRESS_RADIX=UNS;
DATA_RADIX=BIN;

CONTENT BEGIN

0	:	11111111111111100100001001011011	;
1	:	00000000000011010001101101110001	;
2	:	00000000000010011000110111001101	;
3	:	00000000010101010001100000101010	;
4	:	11111111110000000110100011011100	;
5	:	11111111101111011101100110000000	;
6	:	00000000001011111110110001010110	;
7	:	11111111110000101010100110010100	;
8	:	00000000000101010100110010011000	;
9	:	00000000000100000111110010000100	;
10	:	00000000010010010101000110000010	;
11	:	11111111111010011110000110110001	;
12	:	11111111110100011001110011100001	;
13	:	00000000000110001110001000011001	;
14	:	00000000001010010101111010011110	;
15	:	11111111101011001000101101000100	;
16	:	00000000000011011000010001001101	;
17	:	11111111101011101110011000110010	;
18	:	00000000000010111110000011011110	;
19	:	00000000001010000111001010110000	;
20	:	11111111111101011110111100100000	;
21	:	11111111101110001000011001011010	;
22	:	00000000000010100000100100000010	;
23	:	11111111110100010011010000000101	;
24	:	00000000001010101110011111010101	;
25	:	11111111111101101100110111110011	;
26	:	11111111101011111000001101111100	;
27	:	00000000000010001011000110011010	;
28	:	00000000000001010100101101001000	;
29	:	11111111111110001101110011011100	;
30	:	11111111101111011000101011011011	;
31	:	00000000000101111101101111110100	;
32	:	00000000010010111110000011011110	;
33	:	00000000000101101111000000000110	;
34	:	00000000001011100001010001111010	;
35	:	11111111111111000110111110111110	;
36	:	11111111110010101000110000010110	;
37	:	11111111101110000011011110110101	;
38	:	00000000000011010100111111011111	;
39	:	11111111101110111001100011001000	;
40	:	11111111111111010111101100100001	;
41	:	11111111110011010100111111100000	;
42	:	11111111101100111101000001111101	;
43	:	11111111111100110100110101101011	;
44	:	00000000010100100110111010010111	;
45	:	11111111110000001110101111101110	;
46	:	00000000001101110001011101011000	;
47	:	11111111110001000001100010010100	;
48	:	11111111111001000010010110101111	;
49	:	00000000000110101000010110000111	;
50	:	11111111111011001111010000100000	;
51	:	00000000000111010111110110111111	;
52	:	11111111110100110101101010000110	;
53	:	00000000001111010000011111001000	;
54	:	11111111110011000001010101001101	;
55	:	00000000001110111001100011000111	;
56	:	00000000000010110010100101011110	;
57	:	00000000000011111101111100111011	;
58	:	00000000000011110100000111110010	;
59	:	11111111111101000101001110001111	;
60	:	11111111111001101001101011010101	;
61	:	00000000010101011100111110101010	;
62	:	00000000001110001101010011111101	;
63	:	00000000010011110000110110000100	;
64	:	00000000001100001101100001000100	;
65	:	00000000010001111010111000010100	;
66	:	00000000000110000001000001100010	;
67	:	11111111111101010000101100010000	;
68	:	00000000000001111101000000101000	;
69	:	11111111111001000101101000011101	;
70	:	00000000000011111100010100000100	;
71	:	00000000001100110001100011111100	;
72	:	00000000000101000001001000000101	;
73	:	11111111110011100011101111001110	;
74	:	11111111111110010110011111001011	;
75	:	11111111111000000101101111000001	;
76	:	00000000001001100100110000101111	;
77	:	00000000000110110101011100111110	;
78	:	11111111101110101110000101001000	;
79	:	00000000000111000100001100101100	;
80	:	00000000000101011100111110101010	;
81	:	00000000000001011001111100101011	;
82	:	11111111110011010110101000010111	;
83	:	11111111111001100001011111000010	;
84	:	00000000001000111101011100001010	;
85	:	11111111101111100111011011001001	;
86	:	11111111111011001000101101000100	;
87	:	00000000000011010011010110101000	;
88	:	11111111110001110010101100000011	;
89	:	00000000001010000000100111010100	;
90	:	00000000000011010001101101110001	;
91	:	00000000001111000000000110100011	;
92	:	00000000001100011000111111000101	;
93	:	11111111111110011110100000111111	;
94	:	00000000000100110000101111100000	;
95	:	11111111111000110110111000101111	;
96	:	00000000000110000010101010011001	;
97	:	11111111111011100001010001111011	;
98	:	11111111111100001010001111011000	;
99	:	00000000001100100001001011010111	;
100	:	00000000000011101000101001110001	;
101	:	11111111110111000101110101100100	;
102	:	00000000010001100101100101001010	;
103	:	11111111111100000110111101101010	;
104	:	00000000000100110010011000010111	;
105	:	11111111101101011101110011000111	;
106	:	00000000010101011000000100000110	;
107	:	00000000000011101000101001110001	;
108	:	11111111111000000101101111000001	;
109	:	11111111111000110110111000101111	;
110	:	11111111101101001011110001101011	;
111	:	00000000001001010100011000001010	;
112	:	00000000000100000110001001001101	;
113	:	00000000000000001101001110001100	;
114	:	00000000000010001100011010010010	;
115	:	00000000000010000001011011110000	;
116	:	00000000010010111110000011011110	;
117	:	11111111111010011010110101000011	;
118	:	11111111110100100011101000101010	;
119	:	11111111110010010011011101001100	;
120	:	00000000000101100101001010111101	;
121	:	11111111111010101011001101101000	;
122	:	00000000010011101011111011011111	;
123	:	11111111110011010001101101110010	;
124	:	00000000000010101101101010111001	;
125	:	11111111111000100110100000001010	;
126	:	11111111111001001111011101100110	;
127	:	11111111110100101000100011001111	;
128	:	11111111111010110000001000001101	;
129	:	00000000000110111100000000011010	;
130	:	11111111110001010001111010111001	;
131	:	11111111111100111110101010110100	;
132	:	00000000000110101011100111110101	;
133	:	00000000001101100111101000001111	;
134	:	00000000000101011000000100000110	;
135	:	11111111110111111111001011100101	;
136	:	11111111111011001000101101000100	;
137	:	00000000001100110100110101101010	;
138	:	00000000001111000001101111011010	;
139	:	00000000001100101001010111101001	;
140	:	00000000001100101001010111101001	;
141	:	11111111110110100101000100011010	;
142	:	11111111101100000110111101101010	;
143	:	11111111110011011001111010000100	;
144	:	11111111101111110111110011101110	;
145	:	11111111111001111010000011111010	;
146	:	00000000001001001100001011111000	;
147	:	11111111110110100011011011100011	;
148	:	11111111111100100010110100001111	;
149	:	11111111101100100111101110110011	;
150	:	11111111110101110011111010101100	;
151	:	11111111110111011011001000101110	;
152	:	11111111110101100101001010111110	;
153	:	11111111111010011111101111101000	;
154	:	00000000000101011100111110101010	;
155	:	11111111111000011011000010001010	;
156	:	00000000000110100110101101010000	;
157	:	11111111110110010111111101100011	;
158	:	00000000001011000101011011010101	;
159	:	00000000000101110000101000111101	;
160	:	00000000000010110111100000000011	;
161	:	11111111101001010100011000001011	;
162	:	00000000001101111001101001101011	;
163	:	00000000001101111100111011011001	;
164	:	11111111111100001010001111011000	;
165	:	11111111101011100111110101010111	;
166	:	11111111101100100110000101111101	;
167	:	11111111111010011001001100001100	;
168	:	11111111111000100110100000001010	;
169	:	00000000001000001001000000101101	;
170	:	00000000001110011100000011101011	;
171	:	11111111111101000110110111000110	;
172	:	00000000010001001101000000010011	;
173	:	11111111101011010010100010001101	;
174	:	11111111111000010010110101111000	;
175	:	00000000001101111110100100001111	;
176	:	11111111110011100101011000000101	;
177	:	00000000001100010000110010110010	;
178	:	11111111111101001000011111111101	;
179	:	00000000000101001010111101001111	;
180	:	00000000001001010110000001000001	;
181	:	11111111111110100110110111110000	;
182	:	11111111101100111011011001000110	;
183	:	00000000010000111100100111101110	;
184	:	11111111110001001101000000010100	;
185	:	00000000000010011101110001110010	;
186	:	11111111110010000100101101011110	;
187	:	11111111111111001111001011010000	;
188	:	11111111111011011100010111010111	;
189	:	00000000010000101010100110010011	;
190	:	11111111110000100010011010000001	;
191	:	11111111110110001110001000011010	;
192	:	00000000000011111101111100111011	;
193	:	00000000001001000111010001010011	;
194	:	11111111110011101101100100010111	;
195	:	11111111110110101001111110111111	;
196	:	00000000010010000100101101011101	;
197	:	00000000010010100101011110100111	;
198	:	11111111101010111011100110001101	;
199	:	00000000001101111000000000110100	;
200	:	00000000001110110010111111101100	;
201	:	11111111111010101011001101101000	;
202	:	11111111101011000101011011010110	;
203	:	00000000000001101000101100011001	;
204	:	00000000000010001111000010000100	;
205	:	11111111110101001100100110000110	;
206	:	11111111110101001110001110111101	;
207	:	11111111111000111101011100001011	;
208	:	11111111101010100011000001010110	;
209	:	00000000001010010010101000110000	;
210	:	11111111110110100001110010101101	;
211	:	11111111101100111001110000001111	;
212	:	00000000000100101111000110101001	;
213	:	11111111110000111001010110000010	;
214	:	00000000000101011110100111100001	;
215	:	11111111111010001101101110001100	;
216	:	11111111101100100111101110110011	;
217	:	11111111101101110110010111111110	;
218	:	11111111111111000000111010111111	;
219	:	11111111111010001100000101010101	;
220	:	00000000000110111000101110101100	;
221	:	11111111110111110011101101100101	;
222	:	00000000000010011101011100110100	;
223	:	11111111110101001110001110111101	;
224	:	00000000001010001010011100011101	;
225	:	00000000000010110101110111001100	;
226	:	00000000010011011001111010000011	;
227	:	00000000000010100101011110100111	;
228	:	11111111111010011100011101111010	;
229	:	11111111111011011111101001000100	;
230	:	00000000001011111000001101111011	;
231	:	11111111111000100001100101100110	;
232	:	11111111111010010111100011010101	;
233	:	00000000001110111100110100110101	;
234	:	00000000000010011010010101100101	;
235	:	00000000000101000110000010101010	;
236	:	00000000000000110110101110001111	;
237	:	11111111110110110011110100001000	;
238	:	00000000001011000000100000110001	;
239	:	00000000000000000110010000100011	;
240	:	00000000000010110010100101011110	;
241	:	11111111110101000100011001110100	;
242	:	11111111111100010000110010110011	;
243	:	11111111101011111110110001010111	;
244	:	11111111111000110101001111111000	;
245	:	00000000000010010010011110010001	;
246	:	00000000000100100101010001100000	;
247	:	11111111101111101010101100110111	;
248	:	11111111111110101011100111110110	;
249	:	11111111110010100000100100000011	;
250	:	00000000001111010010000111111111	;
251	:	11111111111110111111010010001000	;
252	:	11111111111000111010001010011101	;
253	:	11111111101011100100100011101001	;
254	:	00000000010010001110100010100111	;
255	:	00000000001011101011000111000100	;
256	:	11111111101100001000100110100001	;
257	:	11111111111001110110110010001100	;
258	:	11111111101111010101011001101101	;
259	:	00000000000011010011010110101000	;
260	:	11111111101110011101101100100011	;
261	:	11111111111001001000111010001011	;
262	:	11111111111100100111101110110011	;
263	:	11111111110100010001100111001111	;
264	:	11111111110011011000010001001110	;
265	:	11111111111011100110001100100000	;
266	:	11111111101111000000000110100100	;
267	:	11111111111101101100110111110011	;
268	:	11111111110101100011100010000111	;
269	:	11111111101111000001101111011011	;
270	:	11111111111010101011001101101000	;
271	:	11111111111010111001111101010110	;
272	:	00000000001111101111100111011011	;
273	:	11111111110011000100100110111011	;
274	:	11111111110000101101111000000001	;
275	:	11111111110101001100100110000110	;
276	:	11111111111010100110010011000011	;
277	:	00000000001010011110000110110000	;
278	:	11111111110000110110000100010100	;
279	:	11111111111011100010111010110010	;
280	:	11111111110001001001101110100110	;
281	:	00000000000100101111000110101001	;
282	:	00000000000010110100001110010101	;
283	:	00000000010010111110000011011110	;
284	:	00000000000000011001101110010000	;
285	:	00000000000111110010000100101101	;
286	:	11111111111010001101101110001100	;
287	:	00000000010010101101101010111001	;
288	:	00000000000101111100000110111101	;
289	:	11111111111000101001110001111000	;
290	:	00000000000000010011110100110001	;
291	:	00000000001110100010100111000111	;
292	:	11111111110110011011001111010001	;
293	:	00000000001000010111110000011011	;
294	:	11111111110000110110000100010100	;
295	:	00000000000110111100000000011010	;
296	:	11111111110100000010110111100001	;
297	:	00000000000000101100001111001001	;
298	:	00000000000000111011001001010110	;
299	:	11111111101000001111100100001010	;
300	:	11111111110101001100100110000110	;
301	:	11111111110100011101000101001111	;
302	:	00000000000010111010110001110001	;
303	:	11111111110110100110101101010001	;
304	:	11111111110010111100011010101000	;
305	:	11111111110011000001010101001101	;
306	:	00000000000011110010011110111011	;
307	:	00000000010100101101011101110011	;
308	:	11111111101111010000011111001001	;
309	:	11111111101010101011001101101000	;
310	:	00000000001100100001001011010111	;
311	:	00000000001011000000100000110001	;
312	:	11111111111101001000011111111101	;
313	:	11111111110010000001011011110001	;
314	:	11111111110001011011110000000010	;
315	:	11111111101110111100110100110110	;
316	:	00000000001000010110000111100100	;
317	:	11111111111011001000101101000100	;
318	:	11111111111000011001011001010011	;
319	:	00000000000111001110000001110101	;
320	:	11111111111111001000010010110110	;
321	:	00000000000010111100011010100111	;
322	:	00000000000111101101001010001000	;
323	:	11111111101011100100100011101001	;
324	:	00000000001011001000101101000011	;
325	:	11111111110001100011111100010101	;
326	:	00000000000101100000010000011000	;
327	:	00000000001011110000000001101000	;
328	:	11111111111001111011101100110000	;
329	:	00000000000001010001100101111010	;
330	:	00000000000101101011101110011000	;
331	:	00000000010010111111101100010101	;
332	:	11111111101111100101110010010010	;
333	:	11111111101111101001000100000000	;
334	:	11111111101011110000000001101001	;
335	:	11111111101100111101000001111101	;
336	:	11111111110100111100001101100010	;
337	:	00000000001010010101111010011110	;
338	:	11111111111101001000011111111101	;
339	:	11111111111010100110010011000011	;
340	:	11111111110011001110011100000100	;
341	:	00000000001000011001011001010010	;
342	:	11111111111001010001000110011101	;
343	:	00000000000011100011101111001101	;
344	:	11111111111001101011010100001100	;
345	:	11111111111111111101101101001101	;
346	:	11111111111010010010101000110001	;
347	:	11111111111100000110111101101010	;
348	:	00000000000001011010010001101001	;
349	:	00000000000011100010000110010110	;
350	:	11111111111000110001111110001011	;
351	:	11111111111000011110010011111000	;
352	:	00000000001001000000101101111000	;
353	:	11111111111100100110000101111101	;
354	:	11111111101101000101001110001111	;
355	:	00000000000111000010100011110101	;
356	:	11111111111110111011010110011110	;
357	:	11111111110101000001001000000110	;
358	:	11111111111111111010011100100011	;
359	:	00000000000101100001111001001111	;
360	:	00000000010100000001001110101001	;
361	:	00000000000000001011000010101111	;
362	:	11111111101011101001011110001110	;
363	:	00000000000001100011100111010101	;
364	:	00000000000111011110011010011010	;
365	:	00000000001111011111001110110110	;
366	:	11111111101110100101111000110110	;
367	:	00000000001110110010111111101100	;
368	:	11111111111010011100011101111010	;
369	:	11111111111000110000010101010100	;
370	:	00000000010100000100100000010110	;
371	:	11111111110110000100010011010001	;
372	:	00000000001010100011000001010101	;
373	:	00000000001110001011101011000111	;
374	:	00000000000010010101010000100001	;
375	:	11111111111111111101111111000010	;
376	:	11111111111011110001101010100000	;
377	:	00000000000111011001011111110110	;
378	:	00000000000100000110001001001101	;
379	:	11111111111001010001000110011101	;
380	:	11111111110110101001111110111111	;
381	:	00000000001101011111011011111101	;
382	:	11111111111011101100101111111100	;
383	:	00000000000001010110010101111111	;
384	:	11111111111011101110011000110010	;
385	:	00000000001011000011110010011110	;
386	:	00000000001111110100100001111111	;
387	:	11111111110111110010000100101110	;
388	:	11111111111000001001000000101110	;
389	:	11111111101001110101001001010101	;
390	:	11111111110000110110000100010100	;
391	:	11111111111011011100010111010111	;
392	:	11111111111001110011100000011110	;
393	:	11111111111110111111110001100110	;
394	:	00000000000001111000110000000000	;
395	:	00000000000000010101001000101010	;
396	:	00000000010000011101011111011011	;
397	:	00000000001110010011110111011001	;
398	:	00000000000010110000111100100111	;
399	:	00000000010000110001001001101110	;
400	:	11111111111010110000001000001101	;
401	:	11111111110110100101000100011010	;
402	:	00000000010001100000101010100110	;
403	:	11111111111110111011101011011101	;
404	:	11111111111111111000000000010011	;
405	:	11111111101101001111000011011001	;
406	:	00000000001010011110000110110000	;
407	:	00000000000101001010111101001111	;
408	:	00000000000010001111010111000010	;
409	:	11111111110011001001100001100000	;
410	:	00000000001100000000011010001101	;
411	:	11111111110001101100001000100111	;
412	:	00000000001010011001001100001011	;
413	:	00000000000000010111010000111110	;
414	:	00000000001001011110001101010011	;
415	:	11111111110110011110100000111111	;
416	:	00000000010000100101101011101110	;
417	:	00000000000001110001100010101000	;
418	:	11111111110101101011101110011001	;
419	:	11111111110011101101100100010111	;
420	:	11111111101100110011001100110100	;
421	:	11111111111010111101001111000100	;
422	:	11111111101011000000100000110010	;
423	:	00000000001011101011000111000100	;
424	:	11111111101001111010000011111010	;
425	:	11111111111100000101010100110011	;
426	:	00000000000101111111011000101011	;
427	:	11111111111000001111100100001010	;
428	:	00000000001100010111010110001110	;
429	:	11111111111101000110110111000110	;
430	:	11111111111010000101100001111010	;
431	:	00000000000101101101010111001111	;
432	:	00000000010010101100000010000011	;
433	:	11111111111111101010010111111001	;
434	:	11111111111010000000100111010101	;
435	:	00000000000110110101011100111110	;
436	:	11111111111101100110101001010110	;
437	:	11111111111001001010100011000010	;
438	:	11111111111110110110111011010111	;
439	:	00000000000110100110101101010000	;
440	:	11111111111101110100100100101000	;
441	:	11111111111100000110111101101010	;
442	:	00000000000011111100010100000100	;
443	:	00000000001010110011011001111010	;
444	:	00000000001100000011101011111011	;
445	:	11111111101111101001000100000000	;
446	:	00000000001100000110111101101001	;
447	:	11111111101101011101110011000111	;
448	:	00000000001000101000001001000000	;
449	:	00000000010011110100000111110010	;
450	:	11111111110100101011110100111101	;
451	:	11111111111101100011010111101000	;
452	:	00000000000111101011100001010001	;
453	:	11111111110000010010000001011100	;
454	:	11111111110101011110100111100010	;
455	:	11111111110111110110111111010011	;
456	:	00000000000100110100000001001110	;
457	:	11111111111010011110000110110001	;
458	:	00000000001101100001000100110100	;
459	:	11111111110011110101110000101001	;
460	:	11111111110110101000010110001000	;
461	:	00000000000110101101010000101100	;
462	:	11111111110111101110110011000000	;
463	:	00000000000000110110000100010011	;
464	:	11111111111100010111010110001111	;
465	:	00000000000011110101110000101000	;
466	:	11111111111001111011101100110000	;
467	:	00000000000100100110111010010111	;
468	:	11111111111110100111100001101101	;
469	:	00000000001110000011011110110100	;
470	:	11111111111000110110111000101111	;
471	:	11111111110011111101111100111100	;
472	:	00000000000001001010110111111111	;
473	:	00000000001001111000011011000010	;
474	:	00000000000000001110110110000000	;
475	:	11111111111101000011100101011001	;
476	:	11111111101110101111101101111111	;
477	:	00000000001001010110000001000001	;
478	:	11111111110000100101101011101111	;
479	:	00000000010001001110101001001010	;
480	:	00000000001000010111110000011011	;
481	:	11111111110010001001101000000011	;
482	:	00000000001110011111010101011001	;
483	:	11111111111110000010111111011000	;
484	:	00000000010000111110010000100101	;
485	:	11111111110100000110001001001110	;
486	:	00000000001110110111111010010000	;
487	:	00000000001110000101000111101011	;
488	:	11111111111100101001010111101010	;
489	:	00000000000001101001001011110110	;
490	:	00000000001000111011110011010011	;
491	:	00000000000000001111011100110011	;
492	:	11111111101101010010010101000111	;
493	:	00000000001000111010001010011100	;
494	:	11111111111011110001101010100000	;
495	:	11111111111110100101000100011010	;
496	:	00000000000001100001010100100010	;
497	:	11111111111010000101100001111010	;
498	:	00000000000011000110001111110001	;
499	:	00000000001111000011011000010001	;
500	:	00000000000001011101000011111010	;
501	:	11111111101000100100110111010011	;
502	:	00000000010001010001111010111000	;
503	:	00000000001101100111101000001111	;
504	:	11111111101111000011011000010010	;
505	:	00000000000110001100011111100010	;
506	:	00000000000010010000110101011010	;
507	:	11111111111010111101001111000100	;
508	:	11111111111010011110000110110001	;
509	:	11111111111110010001011010001000	;
510	:	11111111111111101101111110100101	;
511	:	00000000001010001000110011100111	;
512	:	11111111110110100101000100011010	;
513	:	00000000000001011110100010010010	;
514	:	11111111111110101110111001100100	;
515	:	00000000001100100111101110110010	;
516	:	11111111111010010111100011010101	;
517	:	00000000000100101011110100111100	;
518	:	11111111110011110101110000101001	;
519	:	00000000000101110111001100011000	;
520	:	00000000001100100100011101000101	;
521	:	00000000000110101000010110000111	;
522	:	11111111111010101100110110011111	;
523	:	00000000000011101000101001110001	;
524	:	00000000000111010010111100011010	;
525	:	11111111110101011100111110101011	;
526	:	11111111110100110000101111100001	;
527	:	11111111111010010000111111111010	;
528	:	00000000000001100110011001100110	;
529	:	11111111110100010110100001110011	;
530	:	11111111111110010001101111000110	;
531	:	00000000000011010100111111011111	;
532	:	00000000000010000000111100010010	;
533	:	11111111101011010101110011111011	;
534	:	00000000000101001110001110111100	;
535	:	11111111101010111101001111000100	;
536	:	11111111110100110100000001001111	;
537	:	11111111111010100111111011111010	;
538	:	11111111110101100011100010000111	;
539	:	00000000001010110000001000001100	;
540	:	11111111111100011010100111111100	;
541	:	00000000010001111001001111011101	;
542	:	11111111111101111100110000111010	;
543	:	00000000000011000100100110111010	;
544	:	00000000000111100110100110101101	;
545	:	00000000001000111010001010011100	;
546	:	00000000000010110010100101011110	;
547	:	11111111110110010111111101100011	;
548	:	11111111111011001000101101000100	;
549	:	00000000000010000000111100010010	;
550	:	00000000010001111010111000010100	;
551	:	11111111110000100100000010111000	;
552	:	00000000000101000111101011100001	;
553	:	00000000001101100111101000001111	;
554	:	00000000001000010111110000011011	;
555	:	11111111111010010000111111111010	;
556	:	00000000001010101001100100110000	;
557	:	00000000001111010010000111111111	;
558	:	00000000000010010011100111101010	;
559	:	11111111111100111011011001000110	;
560	:	11111111111001001111011101100110	;
561	:	11111111110101001010111101010000	;
562	:	00000000000010100000100100000010	;
563	:	11111111110001001011010111011101	;
564	:	11111111101110100100001111111111	;
565	:	00000000010000101100001111001001	;
566	:	00000000000111000101110101100011	;
567	:	11111111110011110000110110000101	;
568	:	11111111111000001001000000101110	;
569	:	11111111111011101001011110001110	;
570	:	00000000000101101000011100101011	;
571	:	00000000000010010001111110110011	;
572	:	00000000001110010101100000010000	;
573	:	11111111111010100001011000011111	;
574	:	00000000001111101010101100110110	;
575	:	00000000001111110010111001001000	;
576	:	11111111110111000010100011110110	;
577	:	11111111111100001000100110100001	;
578	:	00000000000010101101101010111001	;
579	:	11111111111111010011111011010110	;
580	:	00000000000001101100011101100100	;
581	:	11111111110010010011011101001100	;
582	:	11111111110110000111100100111110	;
583	:	11111111101001100001011111000010	;
584	:	00000000000011100101011000000100	;
585	:	00000000010000101111100000110111	;
586	:	11111111111000100110100000001010	;
587	:	11111111111001001000111010001011	;
588	:	00000000000101110000101000111101	;
589	:	11111111110111111101100010101110	;
590	:	11111111111111000111110011011001	;
591	:	00000000010011010000000100111010	;
592	:	11111111110100101010001100000110	;
593	:	11111111111010001100000101010101	;
594	:	11111111110100000100100000010111	;
595	:	11111111111111101111000111111110	;
596	:	00000000000100110010011000010111	;
597	:	00000000000110110101011100111110	;
598	:	00000000000110111101101001010001	;
599	:	11111111111101000101001110001111	;
600	:	00000000000011010000000100111010	;
601	:	00000000000100010011010000000100	;
602	:	11111111111101100000011010111000	;
603	:	00000000001010010100010001100111	;
604	:	00000000000111011001011111110110	;
605	:	00000000000001000000111000010111	;
606	:	11111111111101111001111110101010	;
607	:	00000000000110110111000101110101	;
608	:	11111111110011101011111011100000	;
609	:	00000000010001110111100110100110	;
610	:	00000000000110110011110100000111	;
611	:	11111111110100101011110100111101	;
612	:	11111111110001100011111100010101	;
613	:	00000000001110001101010011111101	;
614	:	00000000001010001100000101010100	;
615	:	00000000000011000110001111110001	;
616	:	11111111101101110110010111111110	;
617	:	11111111101110111100110100110110	;
618	:	00000000001100100111101110110010	;
619	:	00000000001010101110011111010101	;
620	:	11111111111101111100010001011101	;
621	:	11111111110001101101110001011110	;
622	:	00000000001111111001011100100100	;
623	:	11111111110001000001100010010100	;
624	:	11111111110000011111001000010011	;
625	:	00000000010000101111100000110111	;
626	:	11111111111010000011111001000011	;
627	:	11111111111111111001011101101000	;
628	:	00000000000101000001001000000101	;
629	:	00000000000000111101010001101011	;
630	:	11111111111110011011001111010001	;
631	:	11111111111111110111010010001011	;
632	:	00000000000000000101111101101011	;
633	:	00000000010001101111011010010100	;
634	:	11111111110110100110101101010001	;
635	:	00000000000001011010011100001000	;
636	:	11111111111000010110000111100101	;
637	:	11111111111001010001000110011101	;
638	:	00000000000011001011001010010101	;
639	:	00000000000010010100110001000100	;
640	:	11111111111111111010100001110010	;
641	:	00000000000111010001010011100011	;
642	:	00000000001101101010111001111101	;
643	:	11111111101101100010101101101011	;
644	:	00000000000000000000000101010000	;
645	:	00000000000111100011010100111111	;
646	:	00000000000100110000101111100000	;
647	:	11111111101101001010001000110100	;
648	:	11111111110110110011110100001000	;
649	:	11111111110011000001010101001101	;
650	:	00000000001010001000110011100111	;
651	:	11111111101101000011100101011001	;
652	:	11111111101100010111010110001111	;
653	:	11111111111101111101011010110111	;
654	:	11111111110100110111010010111101	;
655	:	11111111111001101000000010011110	;
656	:	00000000000011011110110100101000	;
657	:	11111111111011000010001001101001	;
658	:	11111111111111010101000100101111	;
659	:	00000000000011100101011000000100	;
660	:	11111111110111110000011011110111	;
661	:	11111111111110010111110011000100	;
662	:	11111111110011111111100101110011	;
663	:	00000000010000111100100111101110	;
664	:	00000000001001000000101101111000	;
665	:	00000000000010111110000011011110	;
666	:	00000000000110010110010100101011	;
667	:	11111111111111100111110000000111	;
668	:	11111111111001110101001001010101	;
669	:	11111111110010011010000000101000	;
670	:	00000000000111110101010110011011	;
671	:	11111111111100010101101101011000	;
672	:	11111111111111100101011101010100	;
673	:	11111111101111010010001000000000	;
674	:	11111111110110000100010011010001	;
675	:	11111111111100111011011001000110	;
676	:	00000000001100001000100110100000	;
677	:	00000000001111000110101001111110	;
678	:	00000000000011111001000010010110	;
679	:	11111111101101110110010111111110	;
680	:	00000000001010111000010100011110	;
681	:	00000000001100000101010100110010	;
682	:	00000000001010110011011001111010	;
683	:	11111111100110100110101101010001	;
684	:	11111111101001111010000011111010	;
685	:	00000000001000100001100101100101	;
686	:	11111111111111010000011111001001	;
687	:	11111111101011011100010111010111	;
688	:	11111111111010110101000010110001	;
689	:	00000000001001101100111101000001	;
690	:	00000000000100001111111110010111	;
691	:	11111111110110000100010011010001	;
692	:	11111111111101001000011111111101	;
693	:	11111111111101010010010101000111	;
694	:	00000000000000101001010010011010	;
695	:	00000000010100011101000101001110	;
696	:	00000000000101001001010100011000	;
697	:	11111111101110000000001101000111	;
698	:	11111111110101100001111001010000	;
699	:	00000000001101010101100110110011	;
700	:	00000000000010101101101010111001	;
701	:	00000000000001111001000100111110	;
702	:	11111111111110000110010001000110	;
703	:	00000000001111111100101110010010	;
704	:	00000000000000010100101001001101	;
705	:	11111111101110100111100001101101	;
706	:	00000000010100110101101010000101	;
707	:	11111111110010010110101110111010	;
708	:	00000000001110100111100001101100	;
709	:	00000000001010010000111111111001	;
710	:	00000000010010101111010011110000	;
711	:	00000000001111001110110110010001	;
712	:	11111111111010111000010100011111	;
713	:	11111111110100010100111000111100	;
714	:	00000000000110111111010010000111	;
715	:	11111111101110010101100000010001	;
716	:	00000000001100000110111101101001	;
717	:	11111111110110100001110010101101	;
718	:	00000000000001011010110001000111	;
719	:	00000000001001110000001110101111	;
720	:	00000000010001000011001011001010	;
721	:	00000000010010100010001100111001	;
722	:	00000000010000101111100000110111	;
723	:	11111111110110010111111101100011	;
724	:	00000000000000110010101000000110	;
725	:	11111111110111110000011011110111	;
726	:	00000000000001101001000001010111	;
727	:	00000000001101111000000000110100	;
728	:	00000000001110100100001111111110	;
729	:	11111111101110001110111100110101	;
730	:	00000000001001100001011111000001	;
731	:	11111111111111100111111010100110	;
732	:	00000000000101100101001010111101	;
733	:	11111111110001011101011000111001	;
734	:	11111111110011010100111111100000	;
735	:	00000000001010110011011001111010	;
736	:	11111111111000000010011101010011	;
737	:	11111111111111101011101011110010	;
738	:	11111111111100001000100110100001	;
739	:	11111111110010000110010110010101	;
740	:	00000000001111100111011011001000	;
741	:	11111111110010110101110111001101	;
742	:	00000000010100010001100111001110	;
743	:	11111111101110111110011101101101	;
744	:	00000000000010001101011001001101	;
745	:	00000000010100101000100011001110	;
746	:	11111111111011010100001011000100	;
747	:	00000000000100000111110010000100	;
748	:	00000000010011001100110011001100	;
749	:	11111111111010000101100001111010	;
750	:	00000000001100110001100011111100	;
751	:	00000000001001101001101011010100	;
752	:	11111111110011100010000110010111	;
753	:	00000000001101000001111100100001	;
754	:	00000000010101110101100011100010	;
755	:	11111111111001011001010010110000	;
756	:	11111111101110001011101011001000	;
757	:	00000000000010001111000010000100	;
758	:	00000000000110110000100010011010	;
759	:	00000000001110001010000010010000	;
760	:	11111111101111001000010010110110	;
761	:	00000000010101010100110010011000	;
762	:	00000000010101101101010111001111	;
763	:	00000000000111001001000111010001	;
764	:	00000000000010000111110100101100	;
765	:	11111111111001101000000010011110	;
766	:	11111111101011110110100101000101	;
767	:	11111111111110000101111100000111	;
768	:	00000000000111111011111001110110	;
769	:	00000000000111010110001110001000	;
770	:	11111111101100001000100110100001	;
771	:	11111111111110000000110111000100	;
772	:	11111111111010110001110001000100	;
773	:	11111111110111001111101010101101	;
774	:	11111111101100011010100111111100	;
775	:	00000000010001101100001000100110	;
776	:	00000000001000000111010111110110	;
777	:	11111111110100110010011000011000	;
778	:	00000000001100110001100011111100	;
779	:	11111111101100010000110010110011	;
780	:	11111111110000010101010011001010	;
781	:	11111111110001010001111010111001	;
782	:	00000000000000000110111110101100	;
783	:	11111111101110001011101011001000	;		

END;
